{
  "version": "1.0",
  "truncation": null,
  "padding": null,
  "added_tokens": [
    {
      "id": 0,
      "content": "[UNK]",
      "single_word": false,
      "lstrip": false,
      "rstrip": false,
      "normalized": false,
      "special": true
    },
    {
      "id": 1,
      "content": "[PAD]",
      "single_word": false,
      "lstrip": false,
      "rstrip": false,
      "normalized": false,
      "special": true
    },
    {
      "id": 2,
      "content": "[EOS]",
      "single_word": false,
      "lstrip": false,
      "rstrip": false,
      "normalized": false,
      "special": true
    }
  ],
  "normalizer": null,
  "pre_tokenizer": {
    "type": "Whitespace"
  },
  "post_processor": null,
  "decoder": null,
  "model": {
    "type": "BPE",
    "dropout": null,
    "unk_token": "[UNK]",
    "continuing_subword_prefix": null,
    "end_of_word_suffix": null,
    "fuse_unk": false,
    "byte_fallback": false,
    "ignore_merges": false,
    "vocab": {
      "[UNK]": 0,
      "[PAD]": 1,
      "[EOS]": 2,
      "!": 3,
      "\"": 4,
      "'": 5,
      "(": 6,
      ")": 7,
      "*": 8,
      ",": 9,
      "-": 10,
      ".": 11,
      "0": 12,
      "3": 13,
      ":": 14,
      ";": 15,
      "?": 16,
      "A": 17,
      "B": 18,
      "C": 19,
      "D": 20,
      "E": 21,
      "F": 22,
      "G": 23,
      "H": 24,
      "I": 25,
      "J": 26,
      "K": 27,
      "L": 28,
      "M": 29,
      "N": 30,
      "O": 31,
      "P": 32,
      "Q": 33,
      "R": 34,
      "S": 35,
      "T": 36,
      "U": 37,
      "V": 38,
      "W": 39,
      "X": 40,
      "Y": 41,
      "Z": 42,
      "[": 43,
      "]": 44,
      "_": 45,
      "`": 46,
      "a": 47,
      "b": 48,
      "c": 49,
      "d": 50,
      "e": 51,
      "f": 52,
      "g": 53,
      "h": 54,
      "i": 55,
      "j": 56,
      "k": 57,
      "l": 58,
      "m": 59,
      "n": 60,
      "o": 61,
      "p": 62,
      "q": 63,
      "r": 64,
      "s": 65,
      "t": 66,
      "u": 67,
      "v": 68,
      "w": 69,
      "x": 70,
      "y": 71,
      "z": 72,
      "he": 73,
      "the": 74,
      "in": 75,
      "an": 76,
      "ou": 77,
      "it": 78,
      "er": 79,
      "at": 80,
      "on": 81,
      "ing": 82,
      "re": 83,
      "to": 84,
      "and": 85,
      "th": 86,
      "as": 87,
      "ed": 88,
      "en": 89,
      "id": 90,
      "ll": 91,
      "ce": 92,
      "se": 93,
      "li": 94,
      "sa": 95,
      "of": 96,
      "le": 97,
      "ar": 98,
      "or": 99,
      "she": 100,
      "ow": 101,
      "is": 102,
      "be": 103,
      "me": 104,
      "said": 105,
      "ad": 106,
      "you": 107,
      "st": 108,
      ",'": 109,
      "Ali": 110,
      "Alice": 111,
      "ly": 112,
      "was": 113,
      "ch": 114,
      "ver": 115,
      "her": 116,
      "ld": 117,
      "ut": 118,
      "gh": 119,
      "all": 120,
      "ot": 121,
      "!'": 122,
      "that": 123,
      "wh": 124,
      "--": 125,
      "so": 126,
      "ur": 127,
      "ve": 128,
      "out": 129,
      "oo": 130,
      "ent": 131,
      "ke": 132,
      "ght": 133,
      "wit": 134,
      "ould": 135,
      "ge": 136,
      "ab": 137,
      "tle": 138,
      "ter": 139,
      "with": 140,
      "sh": 141,
      "al": 142,
      "nd": 143,
      "ri": 144,
      "es": 145,
      ".'": 146,
      "up": 147,
      "The": 148,
      "ay": 149,
      "had": 150,
      "one": 151,
      "ir": 152,
      "ne": 153,
      "ti": 154,
      "ck": 155,
      "for": 156,
      "thing": 157,
      "very": 158,
      "?'": 159,
      "do": 160,
      "not": 161,
      "ther": 162,
      "but": 163,
      "ook": 164,
      "now": 165,
      "ain": 166,
      "ha": 167,
      "ue": 168,
      "ry": 169,
      "ro": 170,
      "own": 171,
      "lit": 172,
      "ag": 173,
      "they": 174,
      "if": 175,
      "sel": 176,
      "little": 177,
      "no": 178,
      "Wh": 179,
      "his": 180,
      "self": 181,
      "pe": 182,
      "fe": 183,
      "im": 184,
      "this": 185,
      "mo": 186,
      "su": 187,
      "mu": 188,
      "ss": 189,
      "are": 190,
      "ard": 191,
      "see": 192,
      "ill": 193,
      "look": 194,
      "ra": 195,
      "ouse": 196,
      "beg": 197,
      "po": 198,
      "de": 199,
      "down": 200,
      "ell": 201,
      "wer": 202,
      "ion": 203,
      "ound": 204,
      "whe": 205,
      "way": 206,
      "ought": 207,
      "know": 208,
      "ite": 209,
      "what": 210,
      "un": 211,
      "about": 212,
      "ink": 213,
      "again": 214,
      "them": 215,
      "go": 216,
      "our": 217,
      "like": 218,
      "ca": 219,
      "went": 220,
      "were": 221,
      "herself": 222,
      "could": 223,
      "would": 224,
      "che": 225,
      "thought": 226,
      "off": 227,
      "some": 228,
      "time": 229,
      "co": 230,
      "ong": 231,
      "am": 232,
      "ice": 233,
      "fo": 234,
      "ind": 235,
      "Que": 236,
      "did": 237,
      "Queen": 238,
      "other": 239,
      "qu": 240,
      "get": 241,
      "have": 242,
      "et": 243,
      "us": 244,
      "then": 245,
      "any": 246,
      "atter": 247,
      "ex": 248,
      "say": 249,
      "bit": 250,
      "gr": 251,
      "pp": 252,
      "ting": 253,
      "when": 254,
      "ake": 255,
      "ock": 256,
      "ast": 257,
      "And": 258,
      "ea": 259,
      "si": 260,
      "head": 261,
      "into": 262,
      "there": 263,
      "ers": 264,
      "your": 265,
      "It": 266,
      "con": 267,
      "ju": 268,
      "who": 269,
      "whi": 270,
      "King": 271,
      "Tur": 272,
      "my": 273,
      "pl": 274,
      "ant": 275,
      "ph": 276,
      "tw": 277,
      "its": 278,
      "think": 279,
      "bo": 280,
      "can": 281,
      "king": 282,
      "wor": 283,
      "ous": 284,
      "reat": 285,
      "too": 286,
      "ried": 287,
      "Turtle": 288,
      "ct": 289,
      "began": 290,
      "ked": 291,
      "ling": 292,
      "Mock": 293,
      "by": 294,
      "mb": 295,
      "ple": 296,
      "Gry": 297,
      "Hatter": 298,
      "ul": 299,
      "phon": 300,
      "Gryphon": 301,
      "Cat": 302,
      "af": 303,
      "lo": 304,
      "mouse": 305,
      "won": 306,
      "much": 307,
      "got": 308,
      "vo": 309,
      "quite": 310,
      "don": 311,
      "ep": 312,
      "how": 313,
      "que": 314,
      "right": 315,
      "You": 316,
      "their": 317,
      "abbit": 318,
      "irst": 319,
      "ning": 320,
      "voice": 321,
      "ure": 322,
      "end": 323,
      "cour": 324,
      "per": 325,
      "only": 326,
      "ort": 327,
      "ack": 328,
      "der": 329,
      "ever": 330,
      "led": 331,
      "--'": 332,
      "more": 333,
      "just": 334,
      "ho": 335,
      "ight": 336,
      "here": 337,
      "ough": 338,
      "Du": 339,
      "Rabbit": 340,
      "him": 341,
      "ious": 342,
      "read": 343,
      "looked": 344,
      "first": 345,
      "mad": 346,
      "ment": 347,
      "tur": 348,
      "ree": 349,
      "never": 350,
      "must": 351,
      "TH": 352,
      "lar": 353,
      "ish": 354,
      "ear": 355,
      "over": 356,
      "round": 357,
      "tone": 358,
      "What": 359,
      "came": 360,
      "chess": 361,
      "fore": 362,
      "Duchess": 363,
      "pi": 364,
      "use": 365,
      "ven": 366,
      "ate": 367,
      "which": 368,
      "Dor": 369,
      "ER": 370,
      "How": 371,
      "long": 372,
      "min": 373,
      "well": 374,
      "erp": 375,
      "arch": 376,
      "should": 377,
      "such": 378,
      "seem": 379,
      "Dormouse": 380,
      "OU": 381,
      "She": 382,
      "back": 383,
      "great": 384,
      "mar": 385,
      "after": 386,
      "ave": 387,
      "day": 388,
      "el": 389,
      "ey": 390,
      "make": 391,
      "sid": 392,
      "been": 393,
      "rom": 394,
      "But": 395,
      "fa": 396,
      "hand": 397,
      "man": 398,
      "ance": 399,
      "ood": 400,
      "cur": 401,
      "last": 402,
      "put": 403,
      "before": 404,
      "Oh": 405,
      "cat": 406,
      "di": 407,
      "low": 408,
      "ru": 409,
      "ang": 410,
      "rep": 411,
      "March": 412,
      "from": 413,
      "ence": 414,
      "There": 415,
      "come": 416,
      "large": 417,
      "door": 418,
      "So": 419,
      "Th": 420,
      "ds": 421,
      "il": 422,
      "ull": 423,
      "art": 424,
      "able": 425,
      "looking": 426,
      "two": 427,
      "minut": 428,
      "Hare": 429,
      "ded": 430,
      "jur": 431,
      "la": 432,
      "spe": 433,
      "tell": 434,
      "und": 435,
      "once": 436,
      "things": 437,
      "moment": 438,
      "dear": 439,
      "Mouse": 440,
      "est": 441,
      "found": 442,
      "lt": 443,
      "sat": 444,
      "tal": 445,
      "heard": 446,
      "nothing": 447,
      "begin": 448,
      "grow": 449,
      "made": 450,
      "every": 451,
      "row": 452,
      "ta": 453,
      "we": 454,
      "xt": 455,
      "lied": 456,
      "near": 457,
      "eyes": 458,
      "replied": 459,
      "Do": 460,
      "ac": 461,
      "air": 462,
      "hur": 463,
      "might": 464,
      "remar": 465,
      "three": 466,
      "ened": 467,
      "ess": 468,
      "next": 469,
      "illar": 470,
      "pleas": 471,
      "wonder": 472,
      "turn": 473,
      "erpillar": 474,
      "No": 475,
      "ame": 476,
      "dy": 477,
      "even": 478,
      "te": 479,
      "try": 480,
      "ving": 481,
      "wa": 482,
      "arm": 483,
      "upon": 484,
      "Why": 485,
      "going": 486,
      "com": 487,
      "mber": 488,
      "Caterpillar": 489,
      "seemed": 490,
      "That": 491,
      "cut": 492,
      "den": 493,
      "good": 494,
      "ild": 495,
      "pt": 496,
      "wr": 497,
      "ass": 498,
      "ally": 499,
      "soon": 500,
      "without": 501,
      "course": 502,
      "jury": 503,
      "under": 504,
      "AT": 505,
      "away": 506,
      "find": 507,
      "ic": 508,
      "tre": 509,
      "tea": 510,
      "will": 511,
      "than": 512,
      "set": 513,
      "ist": 514,
      "rather": 515,
      "poor": 516,
      "getting": 517,
      "Co": 518,
      "ble": 519,
      "full": 520,
      "gl": 521,
      "gard": 522,
      "has": 523,
      "op": 524,
      "old": 525,
      "ran": 526,
      "sit": 527,
      "iting": 528,
      "ons": 529,
      "mean": 530,
      "happ": 531,
      "garden": 532,
      "Well": 533,
      "YOU": 534,
      "pre": 535,
      "sort": 536,
      "hed": 537,
      "same": 538,
      "added": 539,
      "ves": 540,
      "oom": 541,
      "shall": 542,
      "alf": 543,
      "felt": 544,
      "body": 545,
      "took": 546,
      "\"'": 547,
      "Of": 548,
      "fan": 549,
      "half": 550,
      "ive": 551,
      "ps": 552,
      "room": 553,
      "ten": 554,
      "table": 555,
      "another": 556,
      "child": 557,
      "till": 558,
      "does": 559,
      "White": 560,
      "while": 561,
      "quest": 562,
      "ures": 563,
      "He": 564,
      "call": 565,
      "gs": 566,
      "gu": 567,
      "kne": 568,
      "pa": 569,
      "pro": 570,
      "sm": 571,
      "ted": 572,
      "wal": 573,
      "wish": 574,
      "yet": 575,
      "less": 576,
      "Then": 577,
      "They": 578,
      "imp": 579,
      "used": 580,
      "words": 581,
      "side": 582,
      "minute": 583,
      "Come": 584,
      "question": 585,
      "cro": 586,
      "cried": 587,
      "eat": 588,
      "fin": 589,
      "house": 590,
      "spo": 591,
      "tain": 592,
      "take": 593,
      "ved": 594,
      "reme": 595,
      "llow": 596,
      "les": 597,
      "let": 598,
      "ool": 599,
      "peat": 600,
      "sure": 601,
      "face": 602,
      "curious": 603,
      "remember": 604,
      "ah": 605,
      "ak": 606,
      "ap": 607,
      "cer": 608,
      "dre": 609,
      "ecut": 610,
      "ful": 611,
      "hard": 612,
      "ig": 613,
      "ise": 614,
      "mid": 615,
      "tried": 616,
      "ze": 617,
      "hear": 618,
      "inter": 619,
      "repeat": 620,
      "leep": 621,
      "shed": 622,
      "being": 623,
      "feet": 624,
      "anything": 625,
      "execut": 626,
      "iously": 627,
      "Ma": 628,
      "VER": 629,
      "`--": 630,
      "age": 631,
      "aking": 632,
      "dden": 633,
      "ily": 634,
      "mor": 635,
      "sto": 636,
      "wat": 637,
      "enough": 638,
      "ently": 639,
      "cause": 640,
      "sil": 641,
      "fully": 642,
      "As": 643,
      "HA": 644,
      "This": 645,
      "cl": 646,
      "clo": 647,
      "hi": 648,
      "ished": 649,
      "sup": 650,
      "vent": 651,
      "ine": 652,
      "anx": 653,
      "oup": 654,
      "asked": 655,
      "haps": 656,
      "iff": 657,
      "iful": 658,
      "sudden": 659,
      "something": 660,
      "court": 661,
      "ears": 662,
      "turned": 663,
      "spoke": 664,
      ".)": 665,
      ":--": 666,
      "Bill": 667,
      "If": 668,
      "diff": 669,
      "fl": 670,
      "oot": 671,
      "pu": 672,
      "ange": 673,
      "oud": 674,
      "red": 675,
      "lef": 676,
      "lear": 677,
      "tily": 678,
      "Who": 679,
      "most": 680,
      "where": 681,
      "talking": 682,
      "hastily": 683,
      "doesn": 684,
      "certain": 685,
      "Din": 686,
      "Her": 687,
      "IS": 688,
      "bst": 689,
      "done": 690,
      "jo": 691,
      "pr": 692,
      "ring": 693,
      "sent": 694,
      "tr": 695,
      "tri": 696,
      "want": 697,
      "inde": 698,
      "ans": 699,
      "ity": 700,
      "ren": 701,
      "thr": 702,
      "idea": 703,
      "seen": 704,
      "lie": 705,
      "list": 706,
      "cho": 707,
      "change": 708,
      "aby": 709,
      "ared": 710,
      "raw": 711,
      "pose": 712,
      "foot": 713,
      "saying": 714,
      "pped": 715,
      "play": 716,
      "remark": 717,
      "called": 718,
      "small": 719,
      "high": 720,
      "indeed": 721,
      "IN": 722,
      "IT": 723,
      "bot": 724,
      "baby": 725,
      "creat": 726,
      "far": 727,
      "ire": 728,
      "ick": 729,
      "mou": 730,
      "may": 731,
      "ner": 732,
      "ness": 733,
      "part": 734,
      "sing": 735,
      "sur": 736,
      "tin": 737,
      "tter": 738,
      "zz": 739,
      "ited": 740,
      "itself": 741,
      "toge": 742,
      "sea": 743,
      "saw": 744,
      "because": 745,
      "better": 746,
      "ways": 747,
      "didn": 748,
      "plain": 749,
      "both": 750,
      "ctly": 751,
      "perhaps": 752,
      "THE": 753,
      "pie": 754,
      "speak": 755,
      "talk": 756,
      "beginning": 757,
      "tem": 758,
      "trying": 759,
      "happen": 760,
      "knew": 761,
      "VERY": 762,
      "close": 763,
      "anxiously": 764,
      "puzz": 765,
      "left": 766,
      "Dinah": 767,
      "answer": 768,
      "mouth": 769,
      "together": 770,
      "For": 771,
      "RE": 772,
      "Soup": 773,
      "book": 774,
      "cook": 775,
      "dance": 776,
      "ek": 777,
      "fall": 778,
      "gone": 779,
      "gave": 780,
      "game": 781,
      "hind": 782,
      "mp": 783,
      "ople": 784,
      "run": 785,
      "sw": 786,
      "leave": 787,
      "behind": 788,
      "stand": 789,
      "utiful": 790,
      "why": 791,
      "whis": 792,
      "kept": 793,
      "shri": 794,
      "Whi": 795,
      "people": 796,
      "fee": 797,
      "ssed": 798,
      "follow": 799,
      "size": 800,
      "whole": 801,
      "queer": 802,
      "turning": 803,
      "THAT": 804,
      "However": 805,
      "cats": 806,
      "sation": 807,
      "Dodo": 808,
      "hurried": 809,
      "please": 810,
      "hedge": 811,
      "appe": 812,
      "certainly": 813,
      "through": 814,
      "CHA": 815,
      "In": 816,
      "Now": 817,
      "PT": 818,
      "VE": 819,
      "Will": 820,
      "Yes": 821,
      "ace": 822,
      "bb": 823,
      "bir": 824,
      "bus": 825,
      "cti": 826,
      "ely": 827,
      "gra": 828,
      "glo": 829,
      "io": 830,
      "ither": 831,
      "jest": 832,
      "mind": 833,
      "many": 834,
      "name": 835,
      "rup": 836,
      "sl": 837,
      "sound": 838,
      "rest": 839,
      "ask": 840,
      "life": 841,
      "bea": 842,
      "still": 843,
      "ching": 844,
      "--\"": 845,
      "geon": 846,
      "shar": 847,
      "always": 848,
      "timid": 849,
      "butter": 850,
      "ards": 851,
      "raid": 852,
      "deal": 853,
      "wouldn": 854,
      "ches": 855,
      "among": 856,
      "conf": 857,
      "antly": 858,
      "afraid": 859,
      "ortant": 860,
      "erpent": 861,
      "else": 862,
      "hands": 863,
      "dire": 864,
      "everything": 865,
      "tail": 866,
      "hurry": 867,
      "important": 868,
      "finished": 869,
      "interrup": 870,
      "Majest": 871,
      "suppose": 872,
      "suddenly": 873,
      "join": 874,
      "CHAPT": 875,
      "Majesty": 876,
      "CHAPTER": 877,
      "An": 878,
      "Foot": 879,
      "HE": 880,
      "LD": 881,
      "LL": 882,
      "Let": 883,
      "ME": 884,
      "Pi": 885,
      "cou": 886,
      "dou": 887,
      "eag": 888,
      "fur": 889,
      "hall": 890,
      "ken": 891,
      "matter": 892,
      "ng": 893,
      "pass": 894,
      "rink": 895,
      "sis": 896,
      "sne": 897,
      "sleep": 898,
      "hel": 899,
      "these": 900,
      "inst": 901,
      "ates": 902,
      "ation": 903,
      "reas": 904,
      "really": 905,
      "ener": 906,
      "ense": 907,
      "live": 908,
      "ised": 909,
      "wasn": 910,
      "versation": 911,
      "ldi": 912,
      "soldi": 913,
      "keep": 914,
      "shout": 915,
      "deep": 916,
      "whether": 917,
      "ched": 918,
      "offend": 919,
      "times": 920,
      "grin": 921,
      "conversation": 922,
      "place": 923,
      "box": 924,
      "makes": 925,
      "minutes": 926,
      "growing": 927,
      "waited": 928,
      "glad": 929,
      "Off": 930,
      "hardly": 931,
      "execution": 932,
      "silence": 933,
      "Here": 934,
      "trial": 935,
      "listen": 936,
      "gloves": 937,
      "Footman": 938,
      "Pigeon": 939,
      "eager": 940,
      "sister": 941,
      "snee": 942,
      "AN": 943,
      "On": 944,
      "We": 945,
      "Whe": 946,
      "bright": 947,
      "cr": 948,
      "cid": 949,
      "car": 950,
      "cup": 951,
      "dist": 952,
      "fright": 953,
      "gener": 954,
      "oh": 955,
      "pers": 956,
      "pool": 957,
      "stoo": 958,
      "ts": 959,
      "tears": 960,
      "ued": 961,
      "ust": 962,
      "umb": 963,
      "wo": 964,
      "ws": 965,
      "wind": 966,
      "though": 967,
      "ase": 968,
      "best": 969,
      "belie": 970,
      "adv": 971,
      "chang": 972,
      "key": 973,
      "witness": 974,
      "sho": 975,
      "rily": 976,
      "cked": 977,
      "having": 978,
      "pper": 979,
      "sig": 980,
      "sight": 981,
      "yourself": 982,
      "jump": 983,
      "twink": 984,
      "thinking": 985,
      "word": 986,
      "quet": 987,
      "ready": 988,
      "sider": 989,
      "nearly": 990,
      "remarked": 991,
      "glass": 992,
      "open": 993,
      "opened": 994,
      "sitting": 995,
      "fanc": 996,
      "children": 997,
      "walked": 998,
      "lessons": 999,
      "dream": 1000,
      "repeated": 1001,
      "learn": 1002,
      "bottle": 1003,
      "creatures": 1004,
      "piece": 1005,
      "hedgeho": 1006,
      "sharp": 1007,
      "doub": 1008,
      "help": 1009,
      "reason": 1010,
      "soldiers": 1011,
      "offended": 1012,
      "When": 1013,
      ",)": 1014,
      "At": 1015,
      "Bea": 1016,
      "Don": 1017,
      "Kn": 1018,
      "NO": 1019,
      "Not": 1020,
      "Would": 1021,
      "bow": 1022,
      "bro": 1023,
      "cre": 1024,
      "care": 1025,
      "cla": 1026,
      "crow": 1027,
      "dle": 1028,
      "ect": 1029,
      "either": 1030,
      "four": 1031,
      "give": 1032,
      "ky": 1033,
      "kind": 1034,
      "loud": 1035,
      "ose": 1036,
      "pri": 1037,
      "rate": 1038,
      "sp": 1039,
      "serpent": 1040,
      "uc": 1041,
      "ught": 1042,
      "wood": 1043,
      "erent": 1044,
      "ati": 1045,
      "top": 1046,
      "those": 1047,
      "sever": 1048,
      "least": 1049,
      "order": 1050,
      "lying": 1051,
      "shook": 1052,
      "notic": 1053,
      "few": 1054,
      "sub": 1055,
      "against": 1056,
      "gold": 1057,
      "couldn": 1058,
      "qui": 1059,
      "explain": 1060,
      "heads": 1061,
      "contin": 1062,
      "work": 1063,
      "lobst": 1064,
      "hold": 1065,
      "pig": 1066,
      "OULD": 1067,
      "angrily": 1068,
      "coming": 1069,
      "tremb": 1070,
      "moral": 1071,
      "different": 1072,
      "party": 1073,
      "puzzled": 1074,
      "feeling": 1075,
      "birds": 1076,
      "timidly": 1077,
      "interrupted": 1078,
      "shouted": 1079,
      "sneez": 1080,
      "believe": 1081,
      "Knave": 1082,
      "continued": 1083,
      "),": 1084,
      "HAT": 1085,
      "NE": 1086,
      "actly": 1087,
      "br": 1088,
      "bat": 1089,
      "dly": 1090,
      "dry": 1091,
      "dread": 1092,
      "draw": 1093,
      "fish": 1094,
      "ged": 1095,
      "mn": 1096,
      "med": 1097,
      "making": 1098,
      "nat": 1099,
      "ned": 1100,
      "nice": 1101,
      "opp": 1102,
      "slow": 1103,
      "tree": 1104,
      "usu": 1105,
      "vid": 1106,
      "rea": 1107,
      "tory": 1108,
      "ash": 1109,
      "asleep": 1110,
      "ses": 1111,
      "light": 1112,
      "iss": 1113,
      "chin": 1114,
      "white": 1115,
      "whiting": 1116,
      "ket": 1117,
      "shroom": 1118,
      "upid": 1119,
      "ney": 1120,
      "forgot": 1121,
      "haven": 1122,
      "nose": 1123,
      "feel": 1124,
      "mushroom": 1125,
      "unity": 1126,
      "aming": 1127,
      "plan": 1128,
      "ult": 1129,
      "ending": 1130,
      "ortunity": 1131,
      "ately": 1132,
      "fact": 1133,
      "arts": 1134,
      "acle": 1135,
      "waiting": 1136,
      "comfor": 1137,
      "meaning": 1138,
      "gardeners": 1139,
      "YOUR": 1140,
      "proce": 1141,
      "croquet": 1142,
      "running": 1143,
      "whisper": 1144,
      "Which": 1145,
      "followed": 1146,
      "appeared": 1147,
      "ction": 1148,
      "slates": 1149,
      "beautiful": 1150,
      "confus": 1151,
      "eagerly": 1152,
      "distance": 1153,
      "window": 1154,
      "changed": 1155,
      "fancy": 1156,
      "doubt": 1157,
      "noticed": 1158,
      "opportunity": 1159,
      "slowly": 1160,
      "!\"": 1161,
      ".\"'": 1162,
      "Che": 1163,
      "First": 1164,
      "Five": 1165,
      "II": 1166,
      "Just": 1167,
      "LE": 1168,
      "Li": 1169,
      "Lor": 1170,
      "Soo": 1171,
      "WI": 1172,
      "WHAT": 1173,
      "aw": 1174,
      "bur": 1175,
      "bread": 1176,
      "ci": 1177,
      "cket": 1178,
      "dro": 1179,
      "eg": 1180,
      "evid": 1181,
      "fr": 1182,
      "ger": 1183,
      "gir": 1184,
      "hot": 1185,
      "hun": 1186,
      "ject": 1187,
      "ls": 1188,
      "mi": 1189,
      "mer": 1190,
      "py": 1191,
      "pup": 1192,
      "pard": 1193,
      "pair": 1194,
      "sch": 1195,
      "song": 1196,
      "scre": 1197,
      "umber": 1198,
      "vio": 1199,
      "int": 1200,
      "iness": 1201,
      "ank": 1202,
      "ery": 1203,
      "att": 1204,
      "aster": 1205,
      "lish": 1206,
      "sage": 1207,
      "lemn": 1208,
      "ark": 1209,
      "ary": 1210,
      "isn": 1211,
      "stupid": 1212,
      "chim": 1213,
      "solemn": 1214,
      "oop": 1215,
      "show": 1216,
      "shut": 1217,
      "shire": 1218,
      "hadn": 1219,
      "neck": 1220,
      "tired": 1221,
      "cking": 1222,
      "hair": 1223,
      "history": 1224,
      "moved": 1225,
      "ssi": 1226,
      "ssion": 1227,
      "begun": 1228,
      "possi": 1229,
      "decid": 1230,
      "delight": 1231,
      "goes": 1232,
      "others": 1233,
      "grown": 1234,
      "ground": 1235,
      "each": 1236,
      "sigh": 1237,
      "consider": 1238,
      "world": 1239,
      "ular": 1240,
      "however": 1241,
      "larger": 1242,
      "mine": 1243,
      "eye": 1244,
      "sides": 1245,
      "manage": 1246,
      "pleased": 1247,
      "wondering": 1248,
      "writing": 1249,
      "trees": 1250,
      "onsense": 1251,
      "happened": 1252,
      "pressed": 1253,
      "middle": 1254,
      "story": 1255,
      "watch": 1256,
      "silent": 1257,
      "venture": 1258,
      "ventures": 1259,
      "diffic": 1260,
      "flaming": 1261,
      "prised": 1262,
      "surprised": 1263,
      "temper": 1264,
      "tempt": 1265,
      "business": 1266,
      "frightened": 1267,
      "generally": 1268,
      "stood": 1269,
      "hedgehog": 1270,
      "NOT": 1271,
      "atiently": 1272,
      "subject": 1273,
      "golden": 1274,
      "quiet": 1275,
      "lobsters": 1276,
      "Cheshire": 1277,
      "Lory": 1278,
      "puppy": 1279,
      "pardon": 1280,
      "school": 1281,
      "viol": 1282,
      "chimney": 1283,
      "decided": 1284,
      "flamingo": 1285,
      "AS": 1286,
      "Af": 1287,
      "ARE": 1288,
      "BE": 1289,
      "Eng": 1290,
      "Hear": 1291,
      "One": 1292,
      "Two": 1293,
      "US": 1294,
      "bly": 1295,
      "cor": 1296,
      "des": 1297,
      "dare": 1298,
      "ef": 1299,
      "een": 1300,
      "fi": 1301,
      "fun": 1302,
      "ging": 1303,
      "gre": 1304,
      "hour": 1305,
      "iam": 1306,
      "lan": 1307,
      "lad": 1308,
      "late": 1309,
      "men": 1310,
      "nur": 1311,
      "nonsense": 1312,
      "obst": 1313,
      "rid": 1314,
      "rabbit": 1315,
      "sn": 1316,
      "sor": 1317,
      "sir": 1318,
      "sim": 1319,
      "tch": 1320,
      "tast": 1321,
      "tru": 1322,
      "tarts": 1323,
      "ug": 1324,
      "wise": 1325,
      "wards": 1326,
      "zes": 1327,
      "zard": 1328,
      "inea": 1329,
      "inches": 1330,
      "anim": 1331,
      "ouble": 1332,
      "ith": 1333,
      "itten": 1334,
      "ered": 1335,
      "told": 1336,
      "ide": 1337,
      "secon": 1338,
      "liked": 1339,
      "argu": 1340,
      "ison": 1341,
      "bel": 1342,
      "beat": 1343,
      "melan": 1344,
      "youth": 1345,
      "stay": 1346,
      "lded": 1347,
      "utter": 1348,
      "--`": 1349,
      "along": 1350,
      "almost": 1351,
      "tic": 1352,
      "roof": 1353,
      "litely": 1354,
      "aged": 1355,
      "pepper": 1356,
      "fell": 1357,
      "fetch": 1358,
      "imed": 1359,
      "ssing": 1360,
      "pocket": 1361,
      "politely": 1362,
      "cake": 1363,
      "exce": 1364,
      "excla": 1365,
      "myself": 1366,
      "worth": 1367,
      "hop": 1368,
      "himself": 1369,
      "reading": 1370,
      "pict": 1371,
      "pigs": 1372,
      "marked": 1373,
      "spect": 1374,
      "arms": 1375,
      "written": 1376,
      "understand": 1377,
      "present": 1378,
      "guess": 1379,
      "guinea": 1380,
      "smi": 1381,
      "finish": 1382,
      "ign": 1383,
      "interest": 1384,
      "executed": 1385,
      "trouble": 1386,
      "choly": 1387,
      "leaves": 1388,
      "shriek": 1389,
      "William": 1390,
      "grave": 1391,
      "executioner": 1392,
      "person": 1393,
      "shoes": 1394,
      "jumped": 1395,
      "broken": 1396,
      "trembling": 1397,
      "sneezing": 1398,
      "dreadfully": 1399,
      "forgotten": 1400,
      "procession": 1401,
      "Lizard": 1402,
      "evidence": 1403,
      "scream": 1404,
      "difficult": 1405,
      "After": 1406,
      "English": 1407,
      "Hearts": 1408,
      "simple": 1409,
      "animal": 1410,
      "melancholy": 1411,
      "exclaimed": 1412,
      "\"--": 1413,
      "';": 1414,
      "(`": 1415,
      "AR": 1416,
      "Ad": 1417,
      "Ah": 1418,
      "All": 1419,
      "Be": 1420,
      "Con": 1421,
      "Ex": 1422,
      "Lobst": 1423,
      "My": 1424,
      "Ple": 1425,
      "Qu": 1426,
      "Re": 1427,
      "SO": 1428,
      "Seven": 1429,
      "SHE": 1430,
      "Tell": 1431,
      "Very": 1432,
      "Where": 1433,
      "WOULD": 1434,
      "WAS": 1435,
      "aid": 1436,
      "ather": 1437,
      "app": 1438,
      "bs": 1439,
      "bring": 1440,
      "ced": 1441,
      "cle": 1442,
      "cry": 1443,
      "cru": 1444,
      "case": 1445,
      "din": 1446,
      "dis": 1447,
      "drink": 1448,
      "em": 1449,
      "eas": 1450,
      "ff": 1451,
      "fing": 1452,
      "fri": 1453,
      "fig": 1454,
      "fire": 1455,
      "gar": 1456,
      "hook": 1457,
      "ied": 1458,
      "ies": 1459,
      "ibb": 1460,
      "kid": 1461,
      "kno": 1462,
      "lay": 1463,
      "lock": 1464,
      "mon": 1465,
      "main": 1466,
      "mutter": 1467,
      "ny": 1468,
      "nif": 1469,
      "night": 1470,
      "nine": 1471,
      "nibb": 1472,
      "pit": 1473,
      "pack": 1474,
      "spl": 1475,
      "sque": 1476,
      "sky": 1477,
      "tu": 1478,
      "tra": 1479,
      "tun": 1480,
      "ush": 1481,
      "uck": 1482,
      "van": 1483,
      "vous": 1484,
      "wand": 1485,
      "wink": 1486,
      "height": 1487,
      "ince": 1488,
      "ret": 1489,
      "remain": 1490,
      "throw": 1491,
      "asking": 1492,
      "eds": 1493,
      "sadly": 1494,
      "often": 1495,
      "aring": 1496,
      "arrow": 1497,
      "betw": 1498,
      "become": 1499,
      "meant": 1500,
      "young": 1501,
      "stran": 1502,
      "stick": 1503,
      "allow": 1504,
      "ote": 1505,
      "shan": 1506,
      "shrink": 1507,
      "aloud": 1508,
      "altogether": 1509,
      "til": 1510,
      "doing": 1511,
      "notice": 1512,
      "ross": 1513,
      "nobody": 1514,
      "fellow": 1515,
      "sul": 1516,
      "race": 1517,
      "poin": 1518,
      "uncomfor": 1519,
      "until": 1520,
      "likely": 1521,
      "offic": 1522,
      "somebody": 1523,
      "sometimes": 1524,
      "folded": 1525,
      "indign": 1526,
      "exactly": 1527,
      "grun": 1528,
      "pping": 1529,
      "jud": 1530,
      "twice": 1531,
      "twel": 1532,
      "mbs": 1533,
      "love": 1534,
      "ends": 1535,
      "home": 1536,
      "hope": 1537,
      "shouldn": 1538,
      "seems": 1539,
      "curio": 1540,
      "angry": 1541,
      "reply": 1542,
      "juror": 1543,
      "speaking": 1544,
      "everybody": 1545,
      "taking": 1546,
      "nearer": 1547,
      "across": 1548,
      "airs": 1549,
      "evening": 1550,
      "waving": 1551,
      "write": 1552,
      "wrong": 1553,
      "treacle": 1554,
      "teacup": 1555,
      "sity": 1556,
      "means": 1557,
      "pret": 1558,
      "knee": 1559,
      "paws": 1560,
      "walk": 1561,
      "walking": 1562,
      "impatiently": 1563,
      "faces": 1564,
      "remembered": 1565,
      "drew": 1566,
      "morning": 1567,
      "stop": 1568,
      "water": 1569,
      "clock": 1570,
      "sentence": 1571,
      "rawling": 1572,
      "INK": 1573,
      "nervous": 1574,
      "surpri": 1575,
      "happens": 1576,
      "swim": 1577,
      "swam": 1578,
      "shrill": 1579,
      "While": 1580,
      "bbing": 1581,
      "sounded": 1582,
      "direction": 1583,
      "coun": 1584,
      "passed": 1585,
      "sleepy": 1586,
      "instantly": 1587,
      "sighed": 1588,
      "twinkle": 1589,
      "Beautiful": 1590,
      "crowded": 1591,
      "usual": 1592,
      "whispered": 1593,
      "confusion": 1594,
      "WILL": 1595,
      "dropped": 1596,
      "eggs": 1597,
      "quietly": 1598,
      "sorrow": 1599,
      "argument": 1600,
      "interesting": 1601,
      "Lobster": 1602,
      "Please": 1603,
      "finger": 1604,
      "hookah": 1605,
      "between": 1606,
      "strange": 1607,
      "curiosity": 1608,
      "surprise": 1609,
      ").": 1610,
      ",\"": 1611,
      ",\"'": 1612,
      ".\"": 1613,
      "?--": 1614,
      "AL": 1615,
      "Are": 1616,
      "ALL": 1617,
      "By": 1618,
      "CE": 1619,
      "Can": 1620,
      "Call": 1621,
      "CAN": 1622,
      "COULD": 1623,
      "EN": 1624,
      "Every": 1625,
      "Fren": 1626,
      "HI": 1627,
      "HO": 1628,
      "HER": 1629,
      "Hold": 1630,
      "ID": 1631,
      "ICE": 1632,
      "Mary": 1633,
      "Nor": 1634,
      "Never": 1635,
      "ONE": 1636,
      "Sh": 1637,
      "Sure": 1638,
      "Said": 1639,
      "TO": 1640,
      "TS": 1641,
      "Take": 1642,
      "With": 1643,
      "`\"": 1644,
      "au": 1645,
      "ax": 1646,
      "breat": 1647,
      "bank": 1648,
      "cus": 1649,
      "clear": 1650,
      "dish": 1651,
      "dark": 1652,
      "ead": 1653,
      "fon": 1654,
      "fly": 1655,
      "fill": 1656,
      "fast": 1657,
      "flow": 1658,
      "fla": 1659,
      "gue": 1660,
      "gently": 1661,
      "hon": 1662,
      "kit": 1663,
      "land": 1664,
      "ms": 1665,
      "ming": 1666,
      "mice": 1667,
      "master": 1668,
      "none": 1669,
      "number": 1670,
      "ob": 1671,
      "oc": 1672,
      "pan": 1673,
      "pas": 1674,
      "par": 1675,
      "por": 1676,
      "pur": 1677,
      "patter": 1678,
      "sli": 1679,
      "soup": 1680,
      "since": 1681,
      "tong": 1682,
      "um": 1683,
      "uce": 1684,
      "ude": 1685,
      "vil": 1686,
      "vage": 1687,
      "wow": 1688,
      "wild": 1689,
      "yer": 1690,
      "yaw": 1691,
      "held": 1692,
      "inv": 1693,
      "itude": 1694,
      "ated": 1695,
      "ones": 1696,
      "real": 1697,
      "tom": 1698,
      "thor": 1699,
      "thim": 1700,
      "lle": 1701,
      "lled": 1702,
      "lives": 1703,
      "savage": 1704,
      "arre": 1705,
      "arse": 1706,
      "arches": 1707,
      "orus": 1708,
      "behead": 1709,
      "adri": 1710,
      "adventures": 1711,
      "sts": 1712,
      "stra": 1713,
      "start": 1714,
      "stairs": 1715,
      "wash": 1716,
      "chance": 1717,
      "verse": 1718,
      "verdi": 1719,
      "verses": 1720,
      "hers": 1721,
      "ots": 1722,
      "--\"'": 1723,
      "sobs": 1724,
      "ural": 1725,
      "short": 1726,
      "alone": 1727,
      "esca": 1728,
      "upset": 1729,
      "new": 1730,
      "neat": 1731,
      "tip": 1732,
      "fortun": 1733,
      "rose": 1734,
      "owning": 1735,
      "selves": 1736,
      "noise": 1737,
      "pet": 1738,
      "peep": 1739,
      "fear": 1740,
      "fectly": 1741,
      "immed": 1742,
      "rage": 1743,
      "poise": 1744,
      "dead": 1745,
      "ions": 1746,
      "capit": 1747,
      "chen": 1748,
      "thoughtfully": 1749,
      "otherwise": 1750,
      "quick": 1751,
      "quarre": 1752,
      "expe": 1753,
      "says": 1754,
      "grass": 1755,
      "sic": 1756,
      "concl": 1757,
      "contempt": 1758,
      "cted": 1759,
      "perfectly": 1760,
      "ledge": 1761,
      "hole": 1762,
      "hoarse": 1763,
      "THIS": 1764,
      "earth": 1765,
      "shoulder": 1766,
      "shoulders": 1767,
      "days": 1768,
      "elbow": 1769,
      "fair": 1770,
      "managed": 1771,
      "disa": 1772,
      "rule": 1773,
      "rush": 1774,
      "begins": 1775,
      "taken": 1776,
      "taught": 1777,
      "week": 1778,
      "Nothing": 1779,
      "teen": 1780,
      "teles": 1781,
      "jurymen": 1782,
      "sett": 1783,
      "pale": 1784,
      "paper": 1785,
      "questions": 1786,
      "cross": 1787,
      "letter": 1788,
      "hearing": 1789,
      "Mabel": 1790,
      "HAVE": 1791,
      "suppressed": 1792,
      "ootiful": 1793,
      "wanted": 1794,
      "players": 1795,
      "ING": 1796,
      "bottom": 1797,
      "creature": 1798,
      "tiny": 1799,
      "puzzling": 1800,
      "answered": 1801,
      "mouths": 1802,
      "fallen": 1803,
      "busily": 1804,
      "slate": 1805,
      "beaut": 1806,
      "confused": 1807,
      "Ann": 1808,
      "courage": 1809,
      "passion": 1810,
      "deeply": 1811,
      "AND": 1812,
      "carried": 1813,
      "shore": 1814,
      "jumping": 1815,
      "twinkling": 1816,
      "sharply": 1817,
      "Beau": 1818,
      "bowed": 1819,
      "crowd": 1820,
      "several": 1821,
      "severely": 1822,
      "ordered": 1823,
      "bats": 1824,
      "natural": 1825,
      "reach": 1826,
      "civil": 1827,
      "frowning": 1828,
      "girl": 1829,
      "hung": 1830,
      "solemnly": 1831,
      "possible": 1832,
      "ventured": 1833,
      "violently": 1834,
      "decidedly": 1835,
      "corner": 1836,
      "green": 1837,
      "hours": 1838,
      "second": 1839,
      "ticular": 1840,
      "except": 1841,
      "pictures": 1842,
      "screamed": 1843,
      "difficulty": 1844,
      "animals": 1845,
      "Quadri": 1846,
      "SOME": 1847,
      "crumbs": 1848,
      "vanished": 1849,
      "retched": 1850,
      "shrinking": 1851,
      "pointing": 1852,
      "uncomfortable": 1853,
      "officers": 1854,
      "indignantly": 1855,
      "grunted": 1856,
      "judge": 1857,
      "twelve": 1858,
      "jurors": 1859,
      "French": 1860,
      "breath": 1861,
      "fond": 1862,
      "honour": 1863,
      "kitchen": 1864,
      "passage": 1865,
      "particular": 1866,
      "porpoise": 1867,
      "tongue": 1868,
      "thimble": 1869,
      "straight": 1870,
      "verdict": 1871,
      "escape": 1872,
      "immedi": 1873,
      "capital": 1874,
      "telesco": 1875,
      "Quadrille": 1876,
      "!--": 1877,
      "!\"'": 1878,
      "\"!'": 1879,
      "?\"'": 1880,
      "AVE": 1881,
      "BO": 1882,
      "Ca": 1883,
      "Ch": 1884,
      "DO": 1885,
      "Did": 1886,
      "Down": 1887,
      "Drawling": 1888,
      "ES": 1889,
      "Ed": 1890,
      "Eag": 1891,
      "GH": 1892,
      "Go": 1893,
      "Give": 1894,
      "Have": 1895,
      "Is": 1896,
      "Lat": 1897,
      "Long": 1898,
      "May": 1899,
      "Miss": 1900,
      "MUS": 1901,
      "OF": 1902,
      "Ow": 1903,
      "ORE": 1904,
      "Pr": 1905,
      "Pan": 1906,
      "Per": 1907,
      "Pat": 1908,
      "QU": 1909,
      "RU": 1910,
      "Sup": 1911,
      "Sil": 1912,
      "Serpent": 1913,
      "Ti": 1914,
      "Tor": 1915,
      "Twink": 1916,
      "WO": 1917,
      "Won": 1918,
      "Yet": 1919,
      "act": 1920,
      "ail": 1921,
      "alive": 1922,
      "blow": 1923,
      "bran": 1924,
      "brea": 1925,
      "cand": 1926,
      "cce": 1927,
      "cri": 1928,
      "cting": 1929,
      "cil": 1930,
      "cards": 1931,
      "da": 1932,
      "dri": 1933,
      "dull": 1934,
      "duc": 1935,
      "ech": 1936,
      "eel": 1937,
      "fits": 1938,
      "flo": 1939,
      "fight": 1940,
      "free": 1941,
      "faster": 1942,
      "gi": 1943,
      "gged": 1944,
      "hang": 1945,
      "humb": 1946,
      "ie": 1947,
      "kill": 1948,
      "kers": 1949,
      "kick": 1950,
      "knif": 1951,
      "lat": 1952,
      "ma": 1953,
      "mis": 1954,
      "mist": 1955,
      "miss": 1956,
      "mpet": 1957,
      "ners": 1958,
      "om": 1959,
      "ove": 1960,
      "pin": 1961,
      "pen": 1962,
      "pot": 1963,
      "pain": 1964,
      "pun": 1965,
      "past": 1966,
      "prom": 1967,
      "pity": 1968,
      "rat": 1969,
      "sk": 1970,
      "ser": 1971,
      "smo": 1972,
      "simp": 1973,
      "sense": 1974,
      "tis": 1975,
      "twent": 1976,
      "tumb": 1977,
      "une": 1978,
      "uous": 1979,
      "uff": 1980,
      "vy": 1981,
      "win": 1982,
      "xed": 1983,
      "yest": 1984,
      "anced": 1985,
      "oun": 1986,
      "itted": 1987,
      "ering": 1988,
      "erday": 1989,
      "attempt": 1990,
      "res": 1991,
      "reco": 1992,
      "relie": 1993,
      "respect": 1994,
      "toes": 1995,
      "toise": 1996,
      "tossing": 1997,
      "thand": 1998,
      "ashed": 1999,
      "edn": 2000,
      "eded": 2001,
      "edge": 2002,
      "eng": 2003,
      "encour": 2004,
      "lif": 2005,
      "livery": 2006,
      "lived": 2007,
      "liged": 2008,
      "sad": 2009,
      "legs": 2010,
      "around": 2011,
      "shes": 2012,
      "ising": 2013,
      "beast": 2014,
      "belong": 2015,
      "below": 2016,
      "besides": 2017,
      "mes": 2018,
      "met": 2019,
      "meet": 2020,
      "aded": 2021,
      "addre": 2022,
      "staring": 2023,
      "stuff": 2024,
      "chorus": 2025,
      "utiously": 2026,
      "sobbing": 2027,
      "outside": 2028,
      "oose": 2029,
      "above": 2030,
      "shap": 2031,
      "shaking": 2032,
      "alas": 2033,
      "alarm": 2034,
      "nest": 2035,
      "needn": 2036,
      "forgetting": 2037,
      "dog": 2038,
      "dogs": 2039,
      "notion": 2040,
      "rying": 2041,
      "rog": 2042,
      "roses": 2043,
      "aging": 2044,
      "fect": 2045,
      "impossible": 2046,
      "move": 2047,
      "moving": 2048,
      "suit": 2049,
      "sult": 2050,
      "succe": 2051,
      "music": 2052,
      "posit": 2053,
      "poison": 2054,
      "decl": 2055,
      "ioned": 2056,
      "knowledge": 2057,
      "unimportant": 2058,
      "unfortun": 2059,
      "themselves": 2060,
      "ourn": 2061,
      "caught": 2062,
      "cautiously": 2063,
      "checked": 2064,
      "cheered": 2065,
      "exam": 2066,
      "explan": 2067,
      "extra": 2068,
      "grand": 2069,
      "six": 2070,
      "Turn": 2071,
      "plate": 2072,
      "antage": 2073,
      "twist": 2074,
      "boy": 2075,
      "worse": 2076,
      "pleaded": 2077,
      "lost": 2078,
      "muchness": 2079,
      "howling": 2080,
      "voices": 2081,
      "derland": 2082,
      "oughly": 2083,
      "Duck": 2084,
      "mentioned": 2085,
      "mustard": 2086,
      "THER": 2087,
      "THINK": 2088,
      "picked": 2089,
      "longer": 2090,
      "mark": 2091,
      "handed": 2092,
      "putting": 2093,
      "catch": 2094,
      "cation": 2095,
      "dig": 2096,
      "rules": 2097,
      "Some": 2098,
      "Thank": 2099,
      "speech": 2100,
      "dears": 2101,
      "growl": 2102,
      "tale": 2103,
      "acles": 2104,
      "accid": 2105,
      "accoun": 2106,
      "hurt": 2107,
      "remarking": 2108,
      "pleasant": 2109,
      "turns": 2110,
      "Nobody": 2111,
      "deny": 2112,
      "wrote": 2113,
      "finding": 2114,
      "happy": 2115,
      "sorts": 2116,
      "paw": 2117,
      "proper": 2118,
      "lesson": 2119,
      "crossed": 2120,
      "repeating": 2121,
      "stopped": 2122,
      "watching": 2123,
      "anxious": 2124,
      "prison": 2125,
      "trot": 2126,
      "true": 2127,
      "choked": 2128,
      "footman": 2129,
      "remarks": 2130,
      "smaller": 2131,
      "swallow": 2132,
      "whiskers": 2133,
      "follows": 2134,
      "appear": 2135,
      "ctions": 2136,
      "sounds": 2137,
      "directions": 2138,
      "tails": 2139,
      "joined": 2140,
      "further": 2141,
      "instance": 2142,
      "instead": 2143,
      "grinned": 2144,
      "listening": 2145,
      "Once": 2146,
      "Only": 2147,
      "crown": 2148,
      "crash": 2149,
      "general": 2150,
      "advance": 2151,
      "advantage": 2152,
      "opening": 2153,
      "pieces": 2154,
      "hedgehogs": 2155,
      "carefully": 2156,
      "loudly": 2157,
      "prizes": 2158,
      "spread": 2159,
      "serpents": 2160,
      "ucus": 2161,
      "holding": 2162,
      "brought": 2163,
      "usually": 2164,
      "confusing": 2165,
      "burn": 2166,
      "fron": 2167,
      "girls": 2168,
      "hunting": 2169,
      "miles": 2170,
      "intro": 2171,
      "attending": 2172,
      "possibly": 2173,
      "sighing": 2174,
      "considering": 2175,
      "considered": 2176,
      "effect": 2177,
      "funny": 2178,
      "lady": 2179,
      "nurse": 2180,
      "nursing": 2181,
      "snail": 2182,
      "tasted": 2183,
      "trumpet": 2184,
      "cakes": 2185,
      "hoping": 2186,
      "spectacles": 2187,
      "guessed": 2188,
      "gravely": 2189,
      "Adventures": 2190,
      "Consider": 2191,
      "Exactly": 2192,
      "bringing": 2193,
      "easily": 2194,
      "friend": 2195,
      "figure": 2196,
      "knocking": 2197,
      "muttering": 2198,
      "nibbling": 2199,
      "splash": 2200,
      "tucked": 2201,
      "remained": 2202,
      "sulky": 2203,
      "ALICE": 2204,
      "HIM": 2205,
      "custo": 2206,
      "filled": 2207,
      "guests": 2208,
      "obliged": 2209,
      "pattering": 2210,
      "slipped": 2211,
      "beheaded": 2212,
      "peeped": 2213,
      "expecting": 2214,
      "contemptuous": 2215,
      "disap": 2216,
      "settled": 2217,
      "beautif": 2218,
      "hungry": 2219,
      "immediately": 2220,
      "telescope": 2221,
      "Caucus": 2222,
      "Eaglet": 2223,
      "MUST": 2224,
      "Owl": 2225,
      "Pray": 2226,
      "Panther": 2227,
      "Perhaps": 2228,
      "Silence": 2229,
      "Time": 2230,
      "Tortoise": 2231,
      "Twinkle": 2232,
      "Wonderland": 2233,
      "breathe": 2234,
      "candle": 2235,
      "floor": 2236,
      "hanging": 2237,
      "knife": 2238,
      "later": 2239,
      "mistake": 2240,
      "pencil": 2241,
      "simply": 2242,
      "uneas": 2243,
      "yesterday": 2244,
      "shaped": 2245,
      "succeeded": 2246,
      "unfortunate": 2247,
      "explanation": 2248,
      "accident": 2249,
      "',": 2250,
      ");": 2251,
      ")--": 2252,
      ".--": 2253,
      "?\"": 2254,
      "AD": 2255,
      "AM": 2256,
      "Al": 2257,
      "AID": 2258,
      "ATHER": 2259,
      "Cr": 2260,
      "CHO": 2261,
      "DR": 2262,
      "DY": 2263,
      "DER": 2264,
      "Dig": 2265,
      "ED": 2266,
      "ET": 2267,
      "EVER": 2268,
      "FU": 2269,
      "Fur": 2270,
      "Found": 2271,
      "Fish": 2272,
      "FIT": 2273,
      "Father": 2274,
      "FATHER": 2275,
      "Get": 2276,
      "GAVE": 2277,
      "Hush": 2278,
      "IF": 2279,
      "I_": 2280,
      "Im": 2281,
      "IAM": 2282,
      "Ke": 2283,
      "Last": 2284,
      "LIT": 2285,
      "MI": 2286,
      "Mer": 2287,
      "Mor": 2288,
      "Mind": 2289,
      "MIN": 2290,
      "MORE": 2291,
      "NT": 2292,
      "Nex": 2293,
      "Nimportant": 2294,
      "OVE": 2295,
      "OLD": 2296,
      "Pe": 2297,
      "Po": 2298,
      "Pen": 2299,
      "Par": 2300,
      "Pri": 2301,
      "Pig": 2302,
      "PLE": 2303,
      "Pres": 2304,
      "Ro": 2305,
      "RUS": 2306,
      "SE": 2307,
      "ST": 2308,
      "Se": 2309,
      "St": 2310,
      "Su": 2311,
      "Sto": 2312,
      "Spe": 2313,
      "Shall": 2314,
      "SAID": 2315,
      "Tre": 2316,
      "Tis": 2317,
      "TLE": 2318,
      "TWO": 2319,
      "UR": 2320,
      "Ug": 2321,
      "Up": 2322,
      "Ugh": 2323,
      "UNimportant": 2324,
      "VII": 2325,
      "Wr": 2326,
      "Wow": 2327,
      "Wake": 2328,
      "Your": 2329,
      "_I_": 2330,
      "`'": 2331,
      "aked": 2332,
      "aws": 2333,
      "avy": 2334,
      "bl": 2335,
      "bre": 2336,
      "bar": 2337,
      "bis": 2338,
      "bad": 2339,
      "bite": 2340,
      "bour": 2341,
      "bend": 2342,
      "blast": 2343,
      "bble": 2344,
      "bark": 2345,
      "beds": 2346,
      "barrow": 2347,
      "brush": 2348,
      "cing": 2349,
      "cas": 2350,
      "cir": 2351,
      "cra": 2352,
      "cart": 2353,
      "cool": 2354,
      "cuc": 2355,
      "cush": 2356,
      "dr": 2357,
      "dan": 2358,
      "ding": 2359,
      "dles": 2360,
      "drun": 2361,
      "duce": 2362,
      "ew": 2363,
      "ele": 2364,
      "fer": 2365,
      "fain": 2366,
      "fif": 2367,
      "fra": 2368,
      "fam": 2369,
      "farm": 2370,
      "fash": 2371,
      "foun": 2372,
      "frog": 2373,
      "gid": 2374,
      "gular": 2375,
      "goose": 2376,
      "hit": 2377,
      "hat": 2378,
      "hatter": 2379,
      "hate": 2380,
      "hint": 2381,
      "isa": 2382,
      "igh": 2383,
      "ief": 2384,
      "jar": 2385,
      "jaws": 2386,
      "ks": 2387,
      "knot": 2388,
      "kily": 2389,
      "kiss": 2390,
      "lid": 2391,
      "lone": 2392,
      "lves": 2393,
      "line": 2394,
      "mur": 2395,
      "mil": 2396,
      "mmer": 2397,
      "mitted": 2398,
      "mourn": 2399,
      "nor": 2400,
      "nam": 2401,
      "narrow": 2402,
      "ogra": 2403,
      "pat": 2404,
      "ping": 2405,
      "pid": 2406,
      "parch": 2407,
      "pence": 2408,
      "pull": 2409,
      "patiently": 2410,
      "ron": 2411,
      "rance": 2412,
      "ratt": 2413,
      "sand": 2414,
      "sed": 2415,
      "sen": 2416,
      "sof": 2417,
      "sca": 2418,
      "sang": 2419,
      "scro": 2420,
      "snat": 2421,
      "sending": 2422,
      "tou": 2423,
      "tly": 2424,
      "tall": 2425,
      "tab": 2426,
      "treat": 2427,
      "treading": 2428,
      "tones": 2429,
      "uld": 2430,
      "ugh": 2431,
      "uded": 2432,
      "ump": 2433,
      "var": 2434,
      "vour": 2435,
      "wag": 2436,
      "wet": 2437,
      "wea": 2438,
      "wig": 2439,
      "wine": 2440,
      "wide": 2441,
      "wretched": 2442,
      "ys": 2443,
      "yal": 2444,
      "year": 2445,
      "zy": 2446,
      "zing": 2447,
      "zed": 2448,
      "heart": 2449,
      "heavy": 2450,
      "ining": 2451,
      "invent": 2452,
      "aning": 2453,
      "anno": 2454,
      "oured": 2455,
      "itation": 2456,
      "itated": 2457,
      "itions": 2458,
      "eror": 2459,
      "erable": 2460,
      "atom": 2461,
      "ings": 2462,
      "ref": 2463,
      "rew": 2464,
      "rets": 2465,
      "removed": 2466,
      "regular": 2467,
      "toe": 2468,
      "thro": 2469,
      "thous": 2470,
      "thumb": 2471,
      "thump": 2472,
      "threw": 2473,
      "asse": 2474,
      "asha": 2475,
      "editions": 2476,
      "lling": 2477,
      "llent": 2478,
      "llect": 2479,
      "cei": 2480,
      "sell": 2481,
      "living": 2482,
      "lifi": 2483,
      "sal": 2484,
      "safe": 2485,
      "salt": 2486,
      "sault": 2487,
      "sauce": 2488,
      "lead": 2489,
      "legged": 2490,
      "leaning": 2491,
      "orter": 2492,
      "ordin": 2493,
      "ornam": 2494,
      "shelves": 2495,
      "isit": 2496,
      "bear": 2497,
      "became": 2498,
      "mely": 2499,
      "memor": 2500,
      "meek": 2501,
      "ster": 2502,
      "sting": 2503,
      "stir": 2504,
      "stam": 2505,
      "stant": 2506,
      "step": 2507,
      "stru": 2508,
      "stery": 2509,
      "stretched": 2510,
      "wasting": 2511,
      "char": 2512,
      "chain": 2513,
      "chief": 2514,
      "vered": 2515,
      "otic": 2516,
      "somer": 2517,
      "ented": 2518,
      "entang": 2519,
      "entire": 2520,
      "ges": 2521,
      "absur": 2522,
      "tles": 2523,
      "tered": 2524,
      "terri": 2525,
      "within": 2526,
      "shill": 2527,
      "shorter": 2528,
      "also": 2529,
      "already": 2530,
      "ria": 2531,
      "These": 2532,
      "neither": 2533,
      "neigh": 2534,
      "ties": 2535,
      "tiers": 2536,
      "forget": 2537,
      "doth": 2538,
      "note": 2539,
      "nowhere": 2540,
      "rolled": 2541,
      "roots": 2542,
      "royal": 2543,
      "ago": 2544,
      "agree": 2545,
      "agine": 2546,
      "peared": 2547,
      "pebble": 2548,
      "feather": 2549,
      "iment": 2550,
      "thistle": 2551,
      "moder": 2552,
      "sun": 2553,
      "sugar": 2554,
      "summer": 2555,
      "mus": 2556,
      "raven": 2557,
      "rail": 2558,
      "raving": 2559,
      "raised": 2560,
      "rapid": 2561,
      "ounds": 2562,
      "knows": 2563,
      "knowing": 2564,
      "whatever": 2565,
      "uncom": 2566,
      "unless": 2567,
      "unfolded": 2568,
      "unpleasant": 2569,
      "unhappy": 2570,
      "unrolled": 2571,
      "caused": 2572,
      "cauld": 2573,
      "thoughts": 2574,
      "offer": 2575,
      "somewhere": 2576,
      "coax": 2577,
      "collect": 2578,
      "queror": 2579,
      "using": 2580,
      "usion": 2581,
      "exper": 2582,
      "extre": 2583,
      "expre": 2584,
      "yours": 2585,
      "concer": 2586,
      "constant": 2587,
      "whose": 2588,
      "plates": 2589,
      "phy": 2590,
      "phantly": 2591,
      "boards": 2592,
      "boots": 2593,
      "linging": 2594,
      "bye": 2595,
      "mbling": 2596,
      "mbled": 2597,
      "ured": 2598,
      "courtiers": 2599,
      "turtles": 2600,
      "earls": 2601,
      "earnest": 2602,
      "forehead": 2603,
      "picking": 2604,
      "useful": 2605,
      "longed": 2606,
      "archbis": 2607,
      "OUR": 2608,
      "afterwards": 2609,
      "els": 2610,
      "father": 2611,
      "manner": 2612,
      "curled": 2613,
      "curred": 2614,
      "lasted": 2615,
      "pute": 2616,
      "catching": 2617,
      "dipped": 2618,
      "dishes": 2619,
      "rust": 2620,
      "rude": 2621,
      "rubbing": 2622,
      "anger": 2623,
      "comes": 2624,
      "doors": 2625,
      "ully": 2626,
      "lap": 2627,
      "law": 2628,
      "laid": 2629,
      "laug": 2630,
      "label": 2631,
      "laugh": 2632,
      "tells": 2633,
      "telling": 2634,
      "undo": 2635,
      "unders": 2636,
      "Does": 2637,
      "pleasure": 2638,
      "wonderful": 2639,
      "waist": 2640,
      "complain": 2641,
      "comfits": 2642,
      "denied": 2643,
      "sooner": 2644,
      "undertone": 2645,
      "isted": 2646,
      "istling": 2647,
      "blew": 2648,
      "hasn": 2649,
      "older": 2650,
      "ively": 2651,
      "pause": 2652,
      "prove": 2653,
      "proved": 2654,
      "produc": 2655,
      "croque": 2656,
      "fine": 2657,
      "spoon": 2658,
      "tains": 2659,
      "takes": 2660,
      "lets": 2661,
      "watched": 2662,
      "clam": 2663,
      "closed": 2664,
      "flat": 2665,
      "lefthand": 2666,
      "learning": 2667,
      "mostly": 2668,
      "wherever": 2669,
      "proud": 2670,
      "ringlets": 2671,
      "trick": 2672,
      "trium": 2673,
      "wants": 2674,
      "chose": 2675,
      "choice": 2676,
      "changes": 2677,
      "footstep": 2678,
      "playing": 2679,
      "remarkable": 2680,
      "smallest": 2681,
      "ITE": 2682,
      "singing": 2683,
      "singers": 2684,
      "THEY": 2685,
      "books": 2686,
      "falling": 2687,
      "feeble": 2688,
      "hurriedly": 2689,
      "bbed": 2690,
      "bird": 2691,
      "minding": 2692,
      "names": 2693,
      "resting": 2694,
      "directly": 2695,
      "directed": 2696,
      "interrupting": 2697,
      "HEAR": 2698,
      "couple": 2699,
      "furrow": 2700,
      "matters": 2701,
      "keeping": 2702,
      "shouting": 2703,
      "places": 2704,
      "executions": 2705,
      "sisters": 2706,
      "sneeze": 2707,
      "brightened": 2708,
      "carrying": 2709,
      "cupboards": 2710,
      "distant": 2711,
      "persisted": 2712,
      "stoop": 2713,
      "umbled": 2714,
      "woman": 2715,
      "advisa": 2716,
      "changing": 2717,
      "signed": 2718,
      "signif": 2719,
      "fancied": 2720,
      "learnt": 2721,
      "broke": 2722,
      "cares": 2723,
      "claws": 2724,
      "kindly": 2725,
      "ughter": 2726,
      "ordering": 2727,
      "goldfish": 2728,
      "lobster": 2729,
      "trembled": 2730,
      "feelings": 2731,
      "sneezes": 2732,
      "NEVER": 2733,
      "brown": 2734,
      "dreadful": 2735,
      "nicely": 2736,
      "proceed": 2737,
      "doubtful": 2738,
      "doubtfully": 2739,
      "cia": 2740,
      "mile": 2741,
      "mixed": 2742,
      "merely": 2743,
      "intment": 2744,
      "sages": 2745,
      "shower": 2746,
      "showing": 2747,
      "shutting": 2748,
      "delighted": 2749,
      "delightful": 2750,
      "tempered": 2751,
      "violent": 2752,
      "flamingoes": 2753,
      "BEST": 2754,
      "desper": 2755,
      "riddles": 2756,
      "taste": 2757,
      "truth": 2758,
      "ugly": 2759,
      "uglif": 2760,
      "secondly": 2761,
      "beating": 2762,
      "excellent": 2763,
      "presents": 2764,
      "smile": 2765,
      "smiling": 2766,
      "smiled": 2767,
      "personal": 2768,
      "Conqueror": 2769,
      "Explain": 2770,
      "Mystery": 2771,
      "Really": 2772,
      "apples": 2773,
      "clever": 2774,
      "crying": 2775,
      "dinner": 2776,
      "dispute": 2777,
      "easy": 2778,
      "friends": 2779,
      "locks": 2780,
      "month": 2781,
      "muttered": 2782,
      "nyworth": 2783,
      "nibbled": 2784,
      "squee": 2785,
      "squeaking": 2786,
      "uckily": 2787,
      "wandered": 2788,
      "wandering": 2789,
      "throwing": 2790,
      "sulkily": 2791,
      "lovely": 2792,
      "teacups": 2793,
      "swimming": 2794,
      "WILLIAM": 2795,
      "sorrowful": 2796,
      "Everything": 2797,
      "Everybody": 2798,
      "HERE": 2799,
      "IDE": 2800,
      "Northumb": 2801,
      "author": 2802,
      "flower": 2803,
      "flowers": 2804,
      "mson": 2805,
      "occas": 2806,
      "occurred": 2807,
      "panting": 2808,
      "purring": 2809,
      "wildly": 2810,
      "yawning": 2811,
      "yawned": 2812,
      "invited": 2813,
      "invitation": 2814,
      "thoroughly": 2815,
      "started": 2816,
      "startled": 2817,
      "washing": 2818,
      "neatly": 2819,
      "tiptoe": 2820,
      "quickly": 2821,
      "quarrelling": 2822,
      "concluded": 2823,
      "conclusion": 2824,
      "teenth": 2825,
      "BODY": 2826,
      "Edwin": 2827,
      "Latitude": 2828,
      "Longitude": 2829,
      "QUITE": 2830,
      "Suppose": 2831,
      "branches": 2832,
      "crimson": 2833,
      "dais": 2834,
      "giving": 2835,
      "humbly": 2836,
      "miserable": 2837,
      "missed": 2838,
      "pinched": 2839,
      "painting": 2840,
      "smoking": 2841,
      "twenty": 2842,
      "tumbling": 2843,
      "recovered": 2844,
      "relief": 2845,
      "encouraging": 2846,
      "beasts": 2847,
      "belongs": 2848,
      "messages": 2849,
      "addressed": 2850,
      "position": 2851,
      "declare": 2852,
      "examine": 2853,
      "extraordin": 2854,
      "digging": 2855,
      "prisoner": 2856,
      "trotting": 2857,
      "front": 2858,
      "introduce": 2859,
      "splashing": 2860,
      "custody": 2861,
      "contemptuously": 2862,
      "disappeared": 2863,
      "beautifully": 2864,
      "uneasily": 2865,
      "Crab": 2866,
      "CHORUS": 2867,
      "DRINK": 2868,
      "Digging": 2869,
      "FUL": 2870,
      "Fury": 2871,
      "Keep": 2872,
      "LITTLE": 2873,
      "Mercia": 2874,
      "Morcar": 2875,
      "MINE": 2876,
      "Next": 2877,
      "Pepper": 2878,
      "Poor": 2879,
      "Pennyworth": 2880,
      "Paris": 2881,
      "Prizes": 2882,
      "Presently": 2883,
      "Rome": 2884,
      "Speak": 2885,
      "Treacle": 2886,
      "Uglifi": 2887,
      "break": 2888,
      "blasts": 2889,
      "barrowful": 2890,
      "cucumber": 2891,
      "cushion": 2892,
      "dancing": 2893,
      "drunk": 2894,
      "ferrets": 2895,
      "fashion": 2896,
      "fountains": 2897,
      "giddy": 2898,
      "lonely": 2899,
      "murder": 2900,
      "milk": 2901,
      "ography": 2902,
      "parchment": 2903,
      "rattling": 2904,
      "sensation": 2905,
      "scroll": 2906,
      "snatch": 2907,
      "taller": 2908,
      "tably": 2909,
      "weak": 2910,
      "annoy": 2911,
      "throat": 2912,
      "thousand": 2913,
      "assembled": 2914,
      "ashamed": 2915,
      "ornamented": 2916,
      "meekly": 2917,
      "stirring": 2918,
      "stamping": 2919,
      "struck": 2920,
      "somersault": 2921,
      "entangled": 2922,
      "entirely": 2923,
      "absurd": 2924,
      "neighbour": 2925,
      "pebbles": 2926,
      "railway": 2927,
      "rapidly": 2928,
      "cauldron": 2929,
      "coaxing": 2930,
      "collected": 2931,
      "experiment": 2932,
      "extremely": 2933,
      "concert": 2934,
      "earnestly": 2935,
      "archbishop": 2936,
      "laughed": 2937,
      "triumphantly": 2938,
      "footsteps": 2939,
      "advisable": 2940,
      "uglify": 2941,
      "Northumbria": 2942,
      "authority": 2943,
      "occasion": 2944,
      "extraordinary": 2945,
      "Uglification": 2946,
      "\"?'": 2947,
      "')": 2948,
      "):": 2949,
      "):--": 2950,
      ")--`": 2951,
      ".]": 2952,
      ".--`": 2953,
      "?)": 2954,
      "AB": 2955,
      "Am": 2956,
      "Ar": 2957,
      "Ahe": 2958,
      "Athe": 2959,
      "Allow": 2960,
      "AIS": 2961,
      "Aust": 2962,
      "Br": 2963,
      "Bes": 2964,
      "Bir": 2965,
      "Bet": 2966,
      "Back": 2967,
      "Boot": 2968,
      "Bring": 2969,
      "BIT": 2970,
      "Beg": 2971,
      "BUS": 2972,
      "CH": 2973,
      "CI": 2974,
      "CK": 2975,
      "CO": 2976,
      "Cl": 2977,
      "Cer": 2978,
      "Car": 2979,
      "Cur": 2980,
      "Cro": 2981,
      "CRU": 2982,
      "CUR": 2983,
      "COUR": 2984,
      "Der": 2985,
      "Dri": 2986,
      "Dear": 2987,
      "Dist": 2988,
      "Drink": 2989,
      "EY": 2990,
      "Ea": 2991,
      "El": 2992,
      "En": 2993,
      "Even": 2994,
      "EAT": 2995,
      "EVERY": 2996,
      "EVE": 2997,
      "Either": 2998,
      "Evid": 2999
    },
    "merges": [
      [
        "h",
        "e"
      ],
      [
        "t",
        "he"
      ],
      [
        "i",
        "n"
      ],
      [
        "a",
        "n"
      ],
      [
        "o",
        "u"
      ],
      [
        "i",
        "t"
      ],
      [
        "e",
        "r"
      ],
      [
        "a",
        "t"
      ],
      [
        "o",
        "n"
      ],
      [
        "in",
        "g"
      ],
      [
        "r",
        "e"
      ],
      [
        "t",
        "o"
      ],
      [
        "an",
        "d"
      ],
      [
        "t",
        "h"
      ],
      [
        "a",
        "s"
      ],
      [
        "e",
        "d"
      ],
      [
        "e",
        "n"
      ],
      [
        "i",
        "d"
      ],
      [
        "l",
        "l"
      ],
      [
        "c",
        "e"
      ],
      [
        "s",
        "e"
      ],
      [
        "l",
        "i"
      ],
      [
        "s",
        "a"
      ],
      [
        "o",
        "f"
      ],
      [
        "l",
        "e"
      ],
      [
        "a",
        "r"
      ],
      [
        "o",
        "r"
      ],
      [
        "s",
        "he"
      ],
      [
        "o",
        "w"
      ],
      [
        "i",
        "s"
      ],
      [
        "b",
        "e"
      ],
      [
        "m",
        "e"
      ],
      [
        "sa",
        "id"
      ],
      [
        "a",
        "d"
      ],
      [
        "y",
        "ou"
      ],
      [
        "s",
        "t"
      ],
      [
        ",",
        "'"
      ],
      [
        "A",
        "li"
      ],
      [
        "Ali",
        "ce"
      ],
      [
        "l",
        "y"
      ],
      [
        "w",
        "as"
      ],
      [
        "c",
        "h"
      ],
      [
        "v",
        "er"
      ],
      [
        "he",
        "r"
      ],
      [
        "l",
        "d"
      ],
      [
        "u",
        "t"
      ],
      [
        "g",
        "h"
      ],
      [
        "a",
        "ll"
      ],
      [
        "o",
        "t"
      ],
      [
        "!",
        "'"
      ],
      [
        "th",
        "at"
      ],
      [
        "w",
        "h"
      ],
      [
        "-",
        "-"
      ],
      [
        "s",
        "o"
      ],
      [
        "u",
        "r"
      ],
      [
        "v",
        "e"
      ],
      [
        "ou",
        "t"
      ],
      [
        "o",
        "o"
      ],
      [
        "en",
        "t"
      ],
      [
        "k",
        "e"
      ],
      [
        "gh",
        "t"
      ],
      [
        "w",
        "it"
      ],
      [
        "ou",
        "ld"
      ],
      [
        "g",
        "e"
      ],
      [
        "a",
        "b"
      ],
      [
        "t",
        "le"
      ],
      [
        "t",
        "er"
      ],
      [
        "wit",
        "h"
      ],
      [
        "s",
        "h"
      ],
      [
        "a",
        "l"
      ],
      [
        "n",
        "d"
      ],
      [
        "r",
        "i"
      ],
      [
        "e",
        "s"
      ],
      [
        ".",
        "'"
      ],
      [
        "u",
        "p"
      ],
      [
        "T",
        "he"
      ],
      [
        "a",
        "y"
      ],
      [
        "h",
        "ad"
      ],
      [
        "on",
        "e"
      ],
      [
        "i",
        "r"
      ],
      [
        "n",
        "e"
      ],
      [
        "t",
        "i"
      ],
      [
        "c",
        "k"
      ],
      [
        "f",
        "or"
      ],
      [
        "th",
        "ing"
      ],
      [
        "ver",
        "y"
      ],
      [
        "?",
        "'"
      ],
      [
        "d",
        "o"
      ],
      [
        "n",
        "ot"
      ],
      [
        "the",
        "r"
      ],
      [
        "b",
        "ut"
      ],
      [
        "oo",
        "k"
      ],
      [
        "n",
        "ow"
      ],
      [
        "a",
        "in"
      ],
      [
        "h",
        "a"
      ],
      [
        "u",
        "e"
      ],
      [
        "r",
        "y"
      ],
      [
        "r",
        "o"
      ],
      [
        "ow",
        "n"
      ],
      [
        "l",
        "it"
      ],
      [
        "a",
        "g"
      ],
      [
        "the",
        "y"
      ],
      [
        "i",
        "f"
      ],
      [
        "se",
        "l"
      ],
      [
        "lit",
        "tle"
      ],
      [
        "n",
        "o"
      ],
      [
        "W",
        "h"
      ],
      [
        "h",
        "is"
      ],
      [
        "sel",
        "f"
      ],
      [
        "p",
        "e"
      ],
      [
        "f",
        "e"
      ],
      [
        "i",
        "m"
      ],
      [
        "th",
        "is"
      ],
      [
        "m",
        "o"
      ],
      [
        "s",
        "u"
      ],
      [
        "m",
        "u"
      ],
      [
        "s",
        "s"
      ],
      [
        "a",
        "re"
      ],
      [
        "ar",
        "d"
      ],
      [
        "se",
        "e"
      ],
      [
        "i",
        "ll"
      ],
      [
        "l",
        "ook"
      ],
      [
        "r",
        "a"
      ],
      [
        "ou",
        "se"
      ],
      [
        "be",
        "g"
      ],
      [
        "p",
        "o"
      ],
      [
        "d",
        "e"
      ],
      [
        "d",
        "own"
      ],
      [
        "e",
        "ll"
      ],
      [
        "w",
        "er"
      ],
      [
        "i",
        "on"
      ],
      [
        "ou",
        "nd"
      ],
      [
        "w",
        "he"
      ],
      [
        "w",
        "ay"
      ],
      [
        "ou",
        "ght"
      ],
      [
        "k",
        "now"
      ],
      [
        "it",
        "e"
      ],
      [
        "wh",
        "at"
      ],
      [
        "u",
        "n"
      ],
      [
        "ab",
        "out"
      ],
      [
        "in",
        "k"
      ],
      [
        "ag",
        "ain"
      ],
      [
        "the",
        "m"
      ],
      [
        "g",
        "o"
      ],
      [
        "ou",
        "r"
      ],
      [
        "li",
        "ke"
      ],
      [
        "c",
        "a"
      ],
      [
        "w",
        "ent"
      ],
      [
        "wer",
        "e"
      ],
      [
        "her",
        "self"
      ],
      [
        "c",
        "ould"
      ],
      [
        "w",
        "ould"
      ],
      [
        "c",
        "he"
      ],
      [
        "th",
        "ought"
      ],
      [
        "of",
        "f"
      ],
      [
        "so",
        "me"
      ],
      [
        "ti",
        "me"
      ],
      [
        "c",
        "o"
      ],
      [
        "on",
        "g"
      ],
      [
        "a",
        "m"
      ],
      [
        "i",
        "ce"
      ],
      [
        "f",
        "o"
      ],
      [
        "in",
        "d"
      ],
      [
        "Q",
        "ue"
      ],
      [
        "d",
        "id"
      ],
      [
        "Que",
        "en"
      ],
      [
        "o",
        "ther"
      ],
      [
        "q",
        "u"
      ],
      [
        "ge",
        "t"
      ],
      [
        "ha",
        "ve"
      ],
      [
        "e",
        "t"
      ],
      [
        "u",
        "s"
      ],
      [
        "the",
        "n"
      ],
      [
        "an",
        "y"
      ],
      [
        "at",
        "ter"
      ],
      [
        "e",
        "x"
      ],
      [
        "sa",
        "y"
      ],
      [
        "b",
        "it"
      ],
      [
        "g",
        "r"
      ],
      [
        "p",
        "p"
      ],
      [
        "t",
        "ing"
      ],
      [
        "whe",
        "n"
      ],
      [
        "a",
        "ke"
      ],
      [
        "o",
        "ck"
      ],
      [
        "as",
        "t"
      ],
      [
        "A",
        "nd"
      ],
      [
        "e",
        "a"
      ],
      [
        "s",
        "i"
      ],
      [
        "he",
        "ad"
      ],
      [
        "in",
        "to"
      ],
      [
        "the",
        "re"
      ],
      [
        "er",
        "s"
      ],
      [
        "you",
        "r"
      ],
      [
        "I",
        "t"
      ],
      [
        "c",
        "on"
      ],
      [
        "j",
        "u"
      ],
      [
        "wh",
        "o"
      ],
      [
        "wh",
        "i"
      ],
      [
        "K",
        "ing"
      ],
      [
        "T",
        "ur"
      ],
      [
        "m",
        "y"
      ],
      [
        "p",
        "l"
      ],
      [
        "an",
        "t"
      ],
      [
        "p",
        "h"
      ],
      [
        "t",
        "w"
      ],
      [
        "it",
        "s"
      ],
      [
        "th",
        "ink"
      ],
      [
        "b",
        "o"
      ],
      [
        "c",
        "an"
      ],
      [
        "k",
        "ing"
      ],
      [
        "w",
        "or"
      ],
      [
        "ou",
        "s"
      ],
      [
        "re",
        "at"
      ],
      [
        "to",
        "o"
      ],
      [
        "ri",
        "ed"
      ],
      [
        "Tur",
        "tle"
      ],
      [
        "c",
        "t"
      ],
      [
        "beg",
        "an"
      ],
      [
        "k",
        "ed"
      ],
      [
        "l",
        "ing"
      ],
      [
        "M",
        "ock"
      ],
      [
        "b",
        "y"
      ],
      [
        "m",
        "b"
      ],
      [
        "p",
        "le"
      ],
      [
        "G",
        "ry"
      ],
      [
        "H",
        "atter"
      ],
      [
        "u",
        "l"
      ],
      [
        "ph",
        "on"
      ],
      [
        "Gry",
        "phon"
      ],
      [
        "C",
        "at"
      ],
      [
        "a",
        "f"
      ],
      [
        "l",
        "o"
      ],
      [
        "m",
        "ouse"
      ],
      [
        "w",
        "on"
      ],
      [
        "mu",
        "ch"
      ],
      [
        "g",
        "ot"
      ],
      [
        "v",
        "o"
      ],
      [
        "qu",
        "ite"
      ],
      [
        "d",
        "on"
      ],
      [
        "e",
        "p"
      ],
      [
        "h",
        "ow"
      ],
      [
        "q",
        "ue"
      ],
      [
        "ri",
        "ght"
      ],
      [
        "Y",
        "ou"
      ],
      [
        "the",
        "ir"
      ],
      [
        "ab",
        "bit"
      ],
      [
        "ir",
        "st"
      ],
      [
        "n",
        "ing"
      ],
      [
        "vo",
        "ice"
      ],
      [
        "u",
        "re"
      ],
      [
        "en",
        "d"
      ],
      [
        "c",
        "our"
      ],
      [
        "p",
        "er"
      ],
      [
        "on",
        "ly"
      ],
      [
        "or",
        "t"
      ],
      [
        "a",
        "ck"
      ],
      [
        "d",
        "er"
      ],
      [
        "e",
        "ver"
      ],
      [
        "l",
        "ed"
      ],
      [
        "--",
        "'"
      ],
      [
        "mo",
        "re"
      ],
      [
        "ju",
        "st"
      ],
      [
        "h",
        "o"
      ],
      [
        "i",
        "ght"
      ],
      [
        "he",
        "re"
      ],
      [
        "ou",
        "gh"
      ],
      [
        "D",
        "u"
      ],
      [
        "R",
        "abbit"
      ],
      [
        "h",
        "im"
      ],
      [
        "i",
        "ous"
      ],
      [
        "re",
        "ad"
      ],
      [
        "look",
        "ed"
      ],
      [
        "f",
        "irst"
      ],
      [
        "m",
        "ad"
      ],
      [
        "m",
        "ent"
      ],
      [
        "t",
        "ur"
      ],
      [
        "re",
        "e"
      ],
      [
        "ne",
        "ver"
      ],
      [
        "mu",
        "st"
      ],
      [
        "T",
        "H"
      ],
      [
        "l",
        "ar"
      ],
      [
        "is",
        "h"
      ],
      [
        "e",
        "ar"
      ],
      [
        "o",
        "ver"
      ],
      [
        "r",
        "ound"
      ],
      [
        "t",
        "one"
      ],
      [
        "Wh",
        "at"
      ],
      [
        "ca",
        "me"
      ],
      [
        "che",
        "ss"
      ],
      [
        "fo",
        "re"
      ],
      [
        "Du",
        "chess"
      ],
      [
        "p",
        "i"
      ],
      [
        "u",
        "se"
      ],
      [
        "v",
        "en"
      ],
      [
        "at",
        "e"
      ],
      [
        "whi",
        "ch"
      ],
      [
        "D",
        "or"
      ],
      [
        "E",
        "R"
      ],
      [
        "H",
        "ow"
      ],
      [
        "l",
        "ong"
      ],
      [
        "m",
        "in"
      ],
      [
        "w",
        "ell"
      ],
      [
        "er",
        "p"
      ],
      [
        "ar",
        "ch"
      ],
      [
        "sh",
        "ould"
      ],
      [
        "su",
        "ch"
      ],
      [
        "see",
        "m"
      ],
      [
        "Dor",
        "mouse"
      ],
      [
        "O",
        "U"
      ],
      [
        "S",
        "he"
      ],
      [
        "b",
        "ack"
      ],
      [
        "g",
        "reat"
      ],
      [
        "m",
        "ar"
      ],
      [
        "af",
        "ter"
      ],
      [
        "a",
        "ve"
      ],
      [
        "d",
        "ay"
      ],
      [
        "e",
        "l"
      ],
      [
        "e",
        "y"
      ],
      [
        "m",
        "ake"
      ],
      [
        "s",
        "id"
      ],
      [
        "be",
        "en"
      ],
      [
        "ro",
        "m"
      ],
      [
        "B",
        "ut"
      ],
      [
        "f",
        "a"
      ],
      [
        "h",
        "and"
      ],
      [
        "m",
        "an"
      ],
      [
        "an",
        "ce"
      ],
      [
        "oo",
        "d"
      ],
      [
        "c",
        "ur"
      ],
      [
        "l",
        "ast"
      ],
      [
        "p",
        "ut"
      ],
      [
        "be",
        "fore"
      ],
      [
        "O",
        "h"
      ],
      [
        "c",
        "at"
      ],
      [
        "d",
        "i"
      ],
      [
        "l",
        "ow"
      ],
      [
        "r",
        "u"
      ],
      [
        "an",
        "g"
      ],
      [
        "re",
        "p"
      ],
      [
        "M",
        "arch"
      ],
      [
        "f",
        "rom"
      ],
      [
        "en",
        "ce"
      ],
      [
        "The",
        "re"
      ],
      [
        "co",
        "me"
      ],
      [
        "lar",
        "ge"
      ],
      [
        "do",
        "or"
      ],
      [
        "S",
        "o"
      ],
      [
        "T",
        "h"
      ],
      [
        "d",
        "s"
      ],
      [
        "i",
        "l"
      ],
      [
        "u",
        "ll"
      ],
      [
        "ar",
        "t"
      ],
      [
        "ab",
        "le"
      ],
      [
        "look",
        "ing"
      ],
      [
        "tw",
        "o"
      ],
      [
        "min",
        "ut"
      ],
      [
        "H",
        "are"
      ],
      [
        "d",
        "ed"
      ],
      [
        "j",
        "ur"
      ],
      [
        "l",
        "a"
      ],
      [
        "s",
        "pe"
      ],
      [
        "t",
        "ell"
      ],
      [
        "u",
        "nd"
      ],
      [
        "on",
        "ce"
      ],
      [
        "thing",
        "s"
      ],
      [
        "mo",
        "ment"
      ],
      [
        "de",
        "ar"
      ],
      [
        "M",
        "ouse"
      ],
      [
        "e",
        "st"
      ],
      [
        "f",
        "ound"
      ],
      [
        "l",
        "t"
      ],
      [
        "s",
        "at"
      ],
      [
        "t",
        "al"
      ],
      [
        "he",
        "ard"
      ],
      [
        "no",
        "thing"
      ],
      [
        "beg",
        "in"
      ],
      [
        "gr",
        "ow"
      ],
      [
        "mad",
        "e"
      ],
      [
        "e",
        "very"
      ],
      [
        "r",
        "ow"
      ],
      [
        "t",
        "a"
      ],
      [
        "w",
        "e"
      ],
      [
        "x",
        "t"
      ],
      [
        "li",
        "ed"
      ],
      [
        "ne",
        "ar"
      ],
      [
        "ey",
        "es"
      ],
      [
        "rep",
        "lied"
      ],
      [
        "D",
        "o"
      ],
      [
        "a",
        "c"
      ],
      [
        "a",
        "ir"
      ],
      [
        "h",
        "ur"
      ],
      [
        "m",
        "ight"
      ],
      [
        "re",
        "mar"
      ],
      [
        "th",
        "ree"
      ],
      [
        "en",
        "ed"
      ],
      [
        "es",
        "s"
      ],
      [
        "ne",
        "xt"
      ],
      [
        "ill",
        "ar"
      ],
      [
        "ple",
        "as"
      ],
      [
        "won",
        "der"
      ],
      [
        "tur",
        "n"
      ],
      [
        "erp",
        "illar"
      ],
      [
        "N",
        "o"
      ],
      [
        "a",
        "me"
      ],
      [
        "d",
        "y"
      ],
      [
        "e",
        "ven"
      ],
      [
        "t",
        "e"
      ],
      [
        "t",
        "ry"
      ],
      [
        "v",
        "ing"
      ],
      [
        "w",
        "a"
      ],
      [
        "ar",
        "m"
      ],
      [
        "up",
        "on"
      ],
      [
        "Wh",
        "y"
      ],
      [
        "go",
        "ing"
      ],
      [
        "co",
        "m"
      ],
      [
        "mb",
        "er"
      ],
      [
        "Cat",
        "erpillar"
      ],
      [
        "seem",
        "ed"
      ],
      [
        "Th",
        "at"
      ],
      [
        "c",
        "ut"
      ],
      [
        "d",
        "en"
      ],
      [
        "g",
        "ood"
      ],
      [
        "i",
        "ld"
      ],
      [
        "p",
        "t"
      ],
      [
        "w",
        "r"
      ],
      [
        "as",
        "s"
      ],
      [
        "all",
        "y"
      ],
      [
        "so",
        "on"
      ],
      [
        "with",
        "out"
      ],
      [
        "cour",
        "se"
      ],
      [
        "jur",
        "y"
      ],
      [
        "und",
        "er"
      ],
      [
        "A",
        "T"
      ],
      [
        "a",
        "way"
      ],
      [
        "f",
        "ind"
      ],
      [
        "i",
        "c"
      ],
      [
        "t",
        "re"
      ],
      [
        "t",
        "ea"
      ],
      [
        "w",
        "ill"
      ],
      [
        "th",
        "an"
      ],
      [
        "se",
        "t"
      ],
      [
        "is",
        "t"
      ],
      [
        "ra",
        "ther"
      ],
      [
        "po",
        "or"
      ],
      [
        "get",
        "ting"
      ],
      [
        "C",
        "o"
      ],
      [
        "b",
        "le"
      ],
      [
        "f",
        "ull"
      ],
      [
        "g",
        "l"
      ],
      [
        "g",
        "ard"
      ],
      [
        "h",
        "as"
      ],
      [
        "o",
        "p"
      ],
      [
        "o",
        "ld"
      ],
      [
        "r",
        "an"
      ],
      [
        "s",
        "it"
      ],
      [
        "it",
        "ing"
      ],
      [
        "on",
        "s"
      ],
      [
        "me",
        "an"
      ],
      [
        "ha",
        "pp"
      ],
      [
        "gard",
        "en"
      ],
      [
        "W",
        "ell"
      ],
      [
        "Y",
        "OU"
      ],
      [
        "p",
        "re"
      ],
      [
        "s",
        "ort"
      ],
      [
        "he",
        "d"
      ],
      [
        "sa",
        "me"
      ],
      [
        "ad",
        "ded"
      ],
      [
        "ve",
        "s"
      ],
      [
        "oo",
        "m"
      ],
      [
        "sh",
        "all"
      ],
      [
        "al",
        "f"
      ],
      [
        "fe",
        "lt"
      ],
      [
        "bo",
        "dy"
      ],
      [
        "too",
        "k"
      ],
      [
        "\"",
        "'"
      ],
      [
        "O",
        "f"
      ],
      [
        "f",
        "an"
      ],
      [
        "h",
        "alf"
      ],
      [
        "i",
        "ve"
      ],
      [
        "p",
        "s"
      ],
      [
        "r",
        "oom"
      ],
      [
        "t",
        "en"
      ],
      [
        "t",
        "able"
      ],
      [
        "an",
        "other"
      ],
      [
        "ch",
        "ild"
      ],
      [
        "ti",
        "ll"
      ],
      [
        "do",
        "es"
      ],
      [
        "Wh",
        "ite"
      ],
      [
        "whi",
        "le"
      ],
      [
        "que",
        "st"
      ],
      [
        "ure",
        "s"
      ],
      [
        "H",
        "e"
      ],
      [
        "c",
        "all"
      ],
      [
        "g",
        "s"
      ],
      [
        "g",
        "u"
      ],
      [
        "k",
        "ne"
      ],
      [
        "p",
        "a"
      ],
      [
        "p",
        "ro"
      ],
      [
        "s",
        "m"
      ],
      [
        "t",
        "ed"
      ],
      [
        "w",
        "al"
      ],
      [
        "w",
        "ish"
      ],
      [
        "y",
        "et"
      ],
      [
        "le",
        "ss"
      ],
      [
        "The",
        "n"
      ],
      [
        "The",
        "y"
      ],
      [
        "im",
        "p"
      ],
      [
        "us",
        "ed"
      ],
      [
        "wor",
        "ds"
      ],
      [
        "sid",
        "e"
      ],
      [
        "minut",
        "e"
      ],
      [
        "Co",
        "me"
      ],
      [
        "quest",
        "ion"
      ],
      [
        "c",
        "ro"
      ],
      [
        "c",
        "ried"
      ],
      [
        "e",
        "at"
      ],
      [
        "f",
        "in"
      ],
      [
        "h",
        "ouse"
      ],
      [
        "s",
        "po"
      ],
      [
        "t",
        "ain"
      ],
      [
        "t",
        "ake"
      ],
      [
        "v",
        "ed"
      ],
      [
        "re",
        "me"
      ],
      [
        "ll",
        "ow"
      ],
      [
        "le",
        "s"
      ],
      [
        "le",
        "t"
      ],
      [
        "oo",
        "l"
      ],
      [
        "pe",
        "at"
      ],
      [
        "su",
        "re"
      ],
      [
        "fa",
        "ce"
      ],
      [
        "cur",
        "ious"
      ],
      [
        "reme",
        "mber"
      ],
      [
        "a",
        "h"
      ],
      [
        "a",
        "k"
      ],
      [
        "a",
        "p"
      ],
      [
        "c",
        "er"
      ],
      [
        "d",
        "re"
      ],
      [
        "e",
        "cut"
      ],
      [
        "f",
        "ul"
      ],
      [
        "h",
        "ard"
      ],
      [
        "i",
        "g"
      ],
      [
        "i",
        "se"
      ],
      [
        "m",
        "id"
      ],
      [
        "t",
        "ried"
      ],
      [
        "z",
        "e"
      ],
      [
        "he",
        "ar"
      ],
      [
        "in",
        "ter"
      ],
      [
        "re",
        "peat"
      ],
      [
        "le",
        "ep"
      ],
      [
        "she",
        "d"
      ],
      [
        "be",
        "ing"
      ],
      [
        "fe",
        "et"
      ],
      [
        "any",
        "thing"
      ],
      [
        "ex",
        "ecut"
      ],
      [
        "ious",
        "ly"
      ],
      [
        "M",
        "a"
      ],
      [
        "V",
        "ER"
      ],
      [
        "`",
        "--"
      ],
      [
        "a",
        "ge"
      ],
      [
        "a",
        "king"
      ],
      [
        "d",
        "den"
      ],
      [
        "i",
        "ly"
      ],
      [
        "m",
        "or"
      ],
      [
        "s",
        "to"
      ],
      [
        "w",
        "at"
      ],
      [
        "en",
        "ough"
      ],
      [
        "ent",
        "ly"
      ],
      [
        "ca",
        "use"
      ],
      [
        "si",
        "l"
      ],
      [
        "full",
        "y"
      ],
      [
        "A",
        "s"
      ],
      [
        "H",
        "A"
      ],
      [
        "T",
        "his"
      ],
      [
        "c",
        "l"
      ],
      [
        "c",
        "lo"
      ],
      [
        "h",
        "i"
      ],
      [
        "i",
        "shed"
      ],
      [
        "s",
        "up"
      ],
      [
        "v",
        "ent"
      ],
      [
        "in",
        "e"
      ],
      [
        "an",
        "x"
      ],
      [
        "ou",
        "p"
      ],
      [
        "as",
        "ked"
      ],
      [
        "ha",
        "ps"
      ],
      [
        "if",
        "f"
      ],
      [
        "if",
        "ul"
      ],
      [
        "su",
        "dden"
      ],
      [
        "some",
        "thing"
      ],
      [
        "cour",
        "t"
      ],
      [
        "ear",
        "s"
      ],
      [
        "turn",
        "ed"
      ],
      [
        "spo",
        "ke"
      ],
      [
        ".",
        ")"
      ],
      [
        ":",
        "--"
      ],
      [
        "B",
        "ill"
      ],
      [
        "I",
        "f"
      ],
      [
        "d",
        "iff"
      ],
      [
        "f",
        "l"
      ],
      [
        "o",
        "ot"
      ],
      [
        "p",
        "u"
      ],
      [
        "an",
        "ge"
      ],
      [
        "ou",
        "d"
      ],
      [
        "re",
        "d"
      ],
      [
        "le",
        "f"
      ],
      [
        "le",
        "ar"
      ],
      [
        "ti",
        "ly"
      ],
      [
        "Wh",
        "o"
      ],
      [
        "mo",
        "st"
      ],
      [
        "whe",
        "re"
      ],
      [
        "tal",
        "king"
      ],
      [
        "has",
        "tily"
      ],
      [
        "does",
        "n"
      ],
      [
        "cer",
        "tain"
      ],
      [
        "D",
        "in"
      ],
      [
        "H",
        "er"
      ],
      [
        "I",
        "S"
      ],
      [
        "b",
        "st"
      ],
      [
        "d",
        "one"
      ],
      [
        "j",
        "o"
      ],
      [
        "p",
        "r"
      ],
      [
        "r",
        "ing"
      ],
      [
        "s",
        "ent"
      ],
      [
        "t",
        "r"
      ],
      [
        "t",
        "ri"
      ],
      [
        "w",
        "ant"
      ],
      [
        "in",
        "de"
      ],
      [
        "an",
        "s"
      ],
      [
        "it",
        "y"
      ],
      [
        "re",
        "n"
      ],
      [
        "th",
        "r"
      ],
      [
        "id",
        "ea"
      ],
      [
        "se",
        "en"
      ],
      [
        "li",
        "e"
      ],
      [
        "li",
        "st"
      ],
      [
        "ch",
        "o"
      ],
      [
        "ch",
        "ange"
      ],
      [
        "ab",
        "y"
      ],
      [
        "are",
        "d"
      ],
      [
        "ra",
        "w"
      ],
      [
        "po",
        "se"
      ],
      [
        "fo",
        "ot"
      ],
      [
        "say",
        "ing"
      ],
      [
        "pp",
        "ed"
      ],
      [
        "pl",
        "ay"
      ],
      [
        "remar",
        "k"
      ],
      [
        "call",
        "ed"
      ],
      [
        "sm",
        "all"
      ],
      [
        "hi",
        "gh"
      ],
      [
        "inde",
        "ed"
      ],
      [
        "I",
        "N"
      ],
      [
        "I",
        "T"
      ],
      [
        "b",
        "ot"
      ],
      [
        "b",
        "aby"
      ],
      [
        "c",
        "reat"
      ],
      [
        "f",
        "ar"
      ],
      [
        "i",
        "re"
      ],
      [
        "i",
        "ck"
      ],
      [
        "m",
        "ou"
      ],
      [
        "m",
        "ay"
      ],
      [
        "n",
        "er"
      ],
      [
        "n",
        "ess"
      ],
      [
        "p",
        "art"
      ],
      [
        "s",
        "ing"
      ],
      [
        "s",
        "ur"
      ],
      [
        "t",
        "in"
      ],
      [
        "t",
        "ter"
      ],
      [
        "z",
        "z"
      ],
      [
        "it",
        "ed"
      ],
      [
        "it",
        "self"
      ],
      [
        "to",
        "ge"
      ],
      [
        "se",
        "a"
      ],
      [
        "sa",
        "w"
      ],
      [
        "be",
        "cause"
      ],
      [
        "be",
        "tter"
      ],
      [
        "way",
        "s"
      ],
      [
        "did",
        "n"
      ],
      [
        "pl",
        "ain"
      ],
      [
        "bo",
        "th"
      ],
      [
        "ct",
        "ly"
      ],
      [
        "per",
        "haps"
      ],
      [
        "TH",
        "E"
      ],
      [
        "pi",
        "e"
      ],
      [
        "spe",
        "ak"
      ],
      [
        "tal",
        "k"
      ],
      [
        "begin",
        "ning"
      ],
      [
        "te",
        "m"
      ],
      [
        "try",
        "ing"
      ],
      [
        "happ",
        "en"
      ],
      [
        "kne",
        "w"
      ],
      [
        "VER",
        "Y"
      ],
      [
        "clo",
        "se"
      ],
      [
        "anx",
        "iously"
      ],
      [
        "pu",
        "zz"
      ],
      [
        "lef",
        "t"
      ],
      [
        "Din",
        "ah"
      ],
      [
        "ans",
        "wer"
      ],
      [
        "mou",
        "th"
      ],
      [
        "toge",
        "ther"
      ],
      [
        "F",
        "or"
      ],
      [
        "R",
        "E"
      ],
      [
        "S",
        "oup"
      ],
      [
        "b",
        "ook"
      ],
      [
        "c",
        "ook"
      ],
      [
        "d",
        "ance"
      ],
      [
        "e",
        "k"
      ],
      [
        "f",
        "all"
      ],
      [
        "g",
        "one"
      ],
      [
        "g",
        "ave"
      ],
      [
        "g",
        "ame"
      ],
      [
        "h",
        "ind"
      ],
      [
        "m",
        "p"
      ],
      [
        "o",
        "ple"
      ],
      [
        "r",
        "un"
      ],
      [
        "s",
        "w"
      ],
      [
        "le",
        "ave"
      ],
      [
        "be",
        "hind"
      ],
      [
        "st",
        "and"
      ],
      [
        "ut",
        "iful"
      ],
      [
        "wh",
        "y"
      ],
      [
        "wh",
        "is"
      ],
      [
        "ke",
        "pt"
      ],
      [
        "sh",
        "ri"
      ],
      [
        "Wh",
        "i"
      ],
      [
        "pe",
        "ople"
      ],
      [
        "fe",
        "e"
      ],
      [
        "ss",
        "ed"
      ],
      [
        "fo",
        "llow"
      ],
      [
        "si",
        "ze"
      ],
      [
        "who",
        "le"
      ],
      [
        "que",
        "er"
      ],
      [
        "tur",
        "ning"
      ],
      [
        "TH",
        "AT"
      ],
      [
        "How",
        "ever"
      ],
      [
        "cat",
        "s"
      ],
      [
        "sat",
        "ion"
      ],
      [
        "Do",
        "do"
      ],
      [
        "hur",
        "ried"
      ],
      [
        "pleas",
        "e"
      ],
      [
        "hed",
        "ge"
      ],
      [
        "ap",
        "pe"
      ],
      [
        "certain",
        "ly"
      ],
      [
        "thr",
        "ough"
      ],
      [
        "C",
        "HA"
      ],
      [
        "I",
        "n"
      ],
      [
        "N",
        "ow"
      ],
      [
        "P",
        "T"
      ],
      [
        "V",
        "E"
      ],
      [
        "W",
        "ill"
      ],
      [
        "Y",
        "es"
      ],
      [
        "a",
        "ce"
      ],
      [
        "b",
        "b"
      ],
      [
        "b",
        "ir"
      ],
      [
        "b",
        "us"
      ],
      [
        "c",
        "ti"
      ],
      [
        "e",
        "ly"
      ],
      [
        "g",
        "ra"
      ],
      [
        "g",
        "lo"
      ],
      [
        "i",
        "o"
      ],
      [
        "i",
        "ther"
      ],
      [
        "j",
        "est"
      ],
      [
        "m",
        "ind"
      ],
      [
        "m",
        "any"
      ],
      [
        "n",
        "ame"
      ],
      [
        "r",
        "up"
      ],
      [
        "s",
        "l"
      ],
      [
        "s",
        "ound"
      ],
      [
        "re",
        "st"
      ],
      [
        "as",
        "k"
      ],
      [
        "li",
        "fe"
      ],
      [
        "be",
        "a"
      ],
      [
        "st",
        "ill"
      ],
      [
        "ch",
        "ing"
      ],
      [
        "--",
        "\""
      ],
      [
        "ge",
        "on"
      ],
      [
        "sh",
        "ar"
      ],
      [
        "al",
        "ways"
      ],
      [
        "ti",
        "mid"
      ],
      [
        "but",
        "ter"
      ],
      [
        "ard",
        "s"
      ],
      [
        "ra",
        "id"
      ],
      [
        "de",
        "al"
      ],
      [
        "would",
        "n"
      ],
      [
        "che",
        "s"
      ],
      [
        "am",
        "ong"
      ],
      [
        "con",
        "f"
      ],
      [
        "ant",
        "ly"
      ],
      [
        "af",
        "raid"
      ],
      [
        "ort",
        "ant"
      ],
      [
        "erp",
        "ent"
      ],
      [
        "el",
        "se"
      ],
      [
        "hand",
        "s"
      ],
      [
        "di",
        "re"
      ],
      [
        "every",
        "thing"
      ],
      [
        "ta",
        "il"
      ],
      [
        "hur",
        "ry"
      ],
      [
        "imp",
        "ortant"
      ],
      [
        "fin",
        "ished"
      ],
      [
        "inter",
        "rup"
      ],
      [
        "Ma",
        "jest"
      ],
      [
        "sup",
        "pose"
      ],
      [
        "sudden",
        "ly"
      ],
      [
        "jo",
        "in"
      ],
      [
        "CHA",
        "PT"
      ],
      [
        "Majest",
        "y"
      ],
      [
        "CHAPT",
        "ER"
      ],
      [
        "A",
        "n"
      ],
      [
        "F",
        "oot"
      ],
      [
        "H",
        "E"
      ],
      [
        "L",
        "D"
      ],
      [
        "L",
        "L"
      ],
      [
        "L",
        "et"
      ],
      [
        "M",
        "E"
      ],
      [
        "P",
        "i"
      ],
      [
        "c",
        "ou"
      ],
      [
        "d",
        "ou"
      ],
      [
        "e",
        "ag"
      ],
      [
        "f",
        "ur"
      ],
      [
        "h",
        "all"
      ],
      [
        "k",
        "en"
      ],
      [
        "m",
        "atter"
      ],
      [
        "n",
        "g"
      ],
      [
        "p",
        "ass"
      ],
      [
        "r",
        "ink"
      ],
      [
        "s",
        "is"
      ],
      [
        "s",
        "ne"
      ],
      [
        "s",
        "leep"
      ],
      [
        "he",
        "l"
      ],
      [
        "the",
        "se"
      ],
      [
        "in",
        "st"
      ],
      [
        "at",
        "es"
      ],
      [
        "at",
        "ion"
      ],
      [
        "re",
        "as"
      ],
      [
        "re",
        "ally"
      ],
      [
        "en",
        "er"
      ],
      [
        "en",
        "se"
      ],
      [
        "li",
        "ve"
      ],
      [
        "is",
        "ed"
      ],
      [
        "was",
        "n"
      ],
      [
        "ver",
        "sation"
      ],
      [
        "ld",
        "i"
      ],
      [
        "so",
        "ldi"
      ],
      [
        "ke",
        "ep"
      ],
      [
        "sh",
        "out"
      ],
      [
        "de",
        "ep"
      ],
      [
        "whe",
        "ther"
      ],
      [
        "che",
        "d"
      ],
      [
        "off",
        "end"
      ],
      [
        "time",
        "s"
      ],
      [
        "gr",
        "in"
      ],
      [
        "con",
        "versation"
      ],
      [
        "pl",
        "ace"
      ],
      [
        "bo",
        "x"
      ],
      [
        "make",
        "s"
      ],
      [
        "minut",
        "es"
      ],
      [
        "grow",
        "ing"
      ],
      [
        "wa",
        "ited"
      ],
      [
        "gl",
        "ad"
      ],
      [
        "Of",
        "f"
      ],
      [
        "hard",
        "ly"
      ],
      [
        "execut",
        "ion"
      ],
      [
        "sil",
        "ence"
      ],
      [
        "Her",
        "e"
      ],
      [
        "tri",
        "al"
      ],
      [
        "list",
        "en"
      ],
      [
        "glo",
        "ves"
      ],
      [
        "Foot",
        "man"
      ],
      [
        "Pi",
        "geon"
      ],
      [
        "eag",
        "er"
      ],
      [
        "sis",
        "ter"
      ],
      [
        "sne",
        "e"
      ],
      [
        "A",
        "N"
      ],
      [
        "O",
        "n"
      ],
      [
        "W",
        "e"
      ],
      [
        "W",
        "he"
      ],
      [
        "b",
        "right"
      ],
      [
        "c",
        "r"
      ],
      [
        "c",
        "id"
      ],
      [
        "c",
        "ar"
      ],
      [
        "c",
        "up"
      ],
      [
        "d",
        "ist"
      ],
      [
        "f",
        "right"
      ],
      [
        "g",
        "ener"
      ],
      [
        "o",
        "h"
      ],
      [
        "p",
        "ers"
      ],
      [
        "p",
        "ool"
      ],
      [
        "s",
        "too"
      ],
      [
        "t",
        "s"
      ],
      [
        "t",
        "ears"
      ],
      [
        "u",
        "ed"
      ],
      [
        "u",
        "st"
      ],
      [
        "u",
        "mb"
      ],
      [
        "w",
        "o"
      ],
      [
        "w",
        "s"
      ],
      [
        "w",
        "ind"
      ],
      [
        "th",
        "ough"
      ],
      [
        "as",
        "e"
      ],
      [
        "be",
        "st"
      ],
      [
        "be",
        "lie"
      ],
      [
        "ad",
        "v"
      ],
      [
        "ch",
        "ang"
      ],
      [
        "ke",
        "y"
      ],
      [
        "wit",
        "ness"
      ],
      [
        "sh",
        "o"
      ],
      [
        "ri",
        "ly"
      ],
      [
        "ck",
        "ed"
      ],
      [
        "ha",
        "ving"
      ],
      [
        "pp",
        "er"
      ],
      [
        "si",
        "g"
      ],
      [
        "si",
        "ght"
      ],
      [
        "your",
        "self"
      ],
      [
        "ju",
        "mp"
      ],
      [
        "tw",
        "ink"
      ],
      [
        "think",
        "ing"
      ],
      [
        "wor",
        "d"
      ],
      [
        "que",
        "t"
      ],
      [
        "read",
        "y"
      ],
      [
        "sid",
        "er"
      ],
      [
        "near",
        "ly"
      ],
      [
        "remar",
        "ked"
      ],
      [
        "gl",
        "ass"
      ],
      [
        "op",
        "en"
      ],
      [
        "op",
        "ened"
      ],
      [
        "sit",
        "ting"
      ],
      [
        "fan",
        "c"
      ],
      [
        "child",
        "ren"
      ],
      [
        "wal",
        "ked"
      ],
      [
        "less",
        "ons"
      ],
      [
        "dre",
        "am"
      ],
      [
        "repeat",
        "ed"
      ],
      [
        "lear",
        "n"
      ],
      [
        "bot",
        "tle"
      ],
      [
        "creat",
        "ures"
      ],
      [
        "pie",
        "ce"
      ],
      [
        "hedge",
        "ho"
      ],
      [
        "shar",
        "p"
      ],
      [
        "dou",
        "b"
      ],
      [
        "hel",
        "p"
      ],
      [
        "reas",
        "on"
      ],
      [
        "soldi",
        "ers"
      ],
      [
        "offend",
        "ed"
      ],
      [
        "Whe",
        "n"
      ],
      [
        ",",
        ")"
      ],
      [
        "A",
        "t"
      ],
      [
        "B",
        "ea"
      ],
      [
        "D",
        "on"
      ],
      [
        "K",
        "n"
      ],
      [
        "N",
        "O"
      ],
      [
        "N",
        "ot"
      ],
      [
        "W",
        "ould"
      ],
      [
        "b",
        "ow"
      ],
      [
        "b",
        "ro"
      ],
      [
        "c",
        "re"
      ],
      [
        "c",
        "are"
      ],
      [
        "c",
        "la"
      ],
      [
        "c",
        "row"
      ],
      [
        "d",
        "le"
      ],
      [
        "e",
        "ct"
      ],
      [
        "e",
        "ither"
      ],
      [
        "f",
        "our"
      ],
      [
        "g",
        "ive"
      ],
      [
        "k",
        "y"
      ],
      [
        "k",
        "ind"
      ],
      [
        "l",
        "oud"
      ],
      [
        "o",
        "se"
      ],
      [
        "p",
        "ri"
      ],
      [
        "r",
        "ate"
      ],
      [
        "s",
        "p"
      ],
      [
        "s",
        "erpent"
      ],
      [
        "u",
        "c"
      ],
      [
        "u",
        "ght"
      ],
      [
        "w",
        "ood"
      ],
      [
        "er",
        "ent"
      ],
      [
        "at",
        "i"
      ],
      [
        "to",
        "p"
      ],
      [
        "th",
        "ose"
      ],
      [
        "se",
        "ver"
      ],
      [
        "le",
        "ast"
      ],
      [
        "or",
        "der"
      ],
      [
        "ly",
        "ing"
      ],
      [
        "sh",
        "ook"
      ],
      [
        "not",
        "ic"
      ],
      [
        "fe",
        "w"
      ],
      [
        "su",
        "b"
      ],
      [
        "again",
        "st"
      ],
      [
        "go",
        "ld"
      ],
      [
        "could",
        "n"
      ],
      [
        "qu",
        "i"
      ],
      [
        "ex",
        "plain"
      ],
      [
        "head",
        "s"
      ],
      [
        "con",
        "tin"
      ],
      [
        "wor",
        "k"
      ],
      [
        "lo",
        "bst"
      ],
      [
        "ho",
        "ld"
      ],
      [
        "pi",
        "g"
      ],
      [
        "OU",
        "LD"
      ],
      [
        "ang",
        "rily"
      ],
      [
        "com",
        "ing"
      ],
      [
        "tre",
        "mb"
      ],
      [
        "mor",
        "al"
      ],
      [
        "diff",
        "erent"
      ],
      [
        "part",
        "y"
      ],
      [
        "puzz",
        "led"
      ],
      [
        "fee",
        "ling"
      ],
      [
        "bir",
        "ds"
      ],
      [
        "timid",
        "ly"
      ],
      [
        "interrup",
        "ted"
      ],
      [
        "shout",
        "ed"
      ],
      [
        "snee",
        "z"
      ],
      [
        "belie",
        "ve"
      ],
      [
        "Kn",
        "ave"
      ],
      [
        "contin",
        "ued"
      ],
      [
        ")",
        ","
      ],
      [
        "H",
        "AT"
      ],
      [
        "N",
        "E"
      ],
      [
        "a",
        "ctly"
      ],
      [
        "b",
        "r"
      ],
      [
        "b",
        "at"
      ],
      [
        "d",
        "ly"
      ],
      [
        "d",
        "ry"
      ],
      [
        "d",
        "read"
      ],
      [
        "d",
        "raw"
      ],
      [
        "f",
        "ish"
      ],
      [
        "g",
        "ed"
      ],
      [
        "m",
        "n"
      ],
      [
        "m",
        "ed"
      ],
      [
        "m",
        "aking"
      ],
      [
        "n",
        "at"
      ],
      [
        "n",
        "ed"
      ],
      [
        "n",
        "ice"
      ],
      [
        "o",
        "pp"
      ],
      [
        "s",
        "low"
      ],
      [
        "t",
        "ree"
      ],
      [
        "u",
        "su"
      ],
      [
        "v",
        "id"
      ],
      [
        "re",
        "a"
      ],
      [
        "to",
        "ry"
      ],
      [
        "as",
        "h"
      ],
      [
        "as",
        "leep"
      ],
      [
        "se",
        "s"
      ],
      [
        "li",
        "ght"
      ],
      [
        "is",
        "s"
      ],
      [
        "ch",
        "in"
      ],
      [
        "wh",
        "ite"
      ],
      [
        "wh",
        "iting"
      ],
      [
        "ke",
        "t"
      ],
      [
        "sh",
        "room"
      ],
      [
        "up",
        "id"
      ],
      [
        "ne",
        "y"
      ],
      [
        "for",
        "got"
      ],
      [
        "ha",
        "ven"
      ],
      [
        "no",
        "se"
      ],
      [
        "fe",
        "el"
      ],
      [
        "mu",
        "shroom"
      ],
      [
        "un",
        "ity"
      ],
      [
        "am",
        "ing"
      ],
      [
        "pl",
        "an"
      ],
      [
        "ul",
        "t"
      ],
      [
        "end",
        "ing"
      ],
      [
        "ort",
        "unity"
      ],
      [
        "ate",
        "ly"
      ],
      [
        "fa",
        "ct"
      ],
      [
        "art",
        "s"
      ],
      [
        "ac",
        "le"
      ],
      [
        "wa",
        "iting"
      ],
      [
        "com",
        "for"
      ],
      [
        "mean",
        "ing"
      ],
      [
        "garden",
        "ers"
      ],
      [
        "YOU",
        "R"
      ],
      [
        "pro",
        "ce"
      ],
      [
        "cro",
        "quet"
      ],
      [
        "run",
        "ning"
      ],
      [
        "whis",
        "per"
      ],
      [
        "Whi",
        "ch"
      ],
      [
        "follow",
        "ed"
      ],
      [
        "appe",
        "ared"
      ],
      [
        "cti",
        "on"
      ],
      [
        "sl",
        "ates"
      ],
      [
        "bea",
        "utiful"
      ],
      [
        "conf",
        "us"
      ],
      [
        "eager",
        "ly"
      ],
      [
        "dist",
        "ance"
      ],
      [
        "wind",
        "ow"
      ],
      [
        "chang",
        "ed"
      ],
      [
        "fanc",
        "y"
      ],
      [
        "doub",
        "t"
      ],
      [
        "notic",
        "ed"
      ],
      [
        "opp",
        "ortunity"
      ],
      [
        "slow",
        "ly"
      ],
      [
        "!",
        "\""
      ],
      [
        ".",
        "\"'"
      ],
      [
        "C",
        "he"
      ],
      [
        "F",
        "irst"
      ],
      [
        "F",
        "ive"
      ],
      [
        "I",
        "I"
      ],
      [
        "J",
        "ust"
      ],
      [
        "L",
        "E"
      ],
      [
        "L",
        "i"
      ],
      [
        "L",
        "or"
      ],
      [
        "S",
        "oo"
      ],
      [
        "W",
        "I"
      ],
      [
        "W",
        "HAT"
      ],
      [
        "a",
        "w"
      ],
      [
        "b",
        "ur"
      ],
      [
        "b",
        "read"
      ],
      [
        "c",
        "i"
      ],
      [
        "c",
        "ket"
      ],
      [
        "d",
        "ro"
      ],
      [
        "e",
        "g"
      ],
      [
        "e",
        "vid"
      ],
      [
        "f",
        "r"
      ],
      [
        "g",
        "er"
      ],
      [
        "g",
        "ir"
      ],
      [
        "h",
        "ot"
      ],
      [
        "h",
        "un"
      ],
      [
        "j",
        "ect"
      ],
      [
        "l",
        "s"
      ],
      [
        "m",
        "i"
      ],
      [
        "m",
        "er"
      ],
      [
        "p",
        "y"
      ],
      [
        "p",
        "up"
      ],
      [
        "p",
        "ard"
      ],
      [
        "p",
        "air"
      ],
      [
        "s",
        "ch"
      ],
      [
        "s",
        "ong"
      ],
      [
        "s",
        "cre"
      ],
      [
        "u",
        "mber"
      ],
      [
        "v",
        "io"
      ],
      [
        "in",
        "t"
      ],
      [
        "in",
        "ess"
      ],
      [
        "an",
        "k"
      ],
      [
        "er",
        "y"
      ],
      [
        "at",
        "t"
      ],
      [
        "as",
        "ter"
      ],
      [
        "li",
        "sh"
      ],
      [
        "sa",
        "ge"
      ],
      [
        "le",
        "mn"
      ],
      [
        "ar",
        "k"
      ],
      [
        "ar",
        "y"
      ],
      [
        "is",
        "n"
      ],
      [
        "st",
        "upid"
      ],
      [
        "ch",
        "im"
      ],
      [
        "so",
        "lemn"
      ],
      [
        "oo",
        "p"
      ],
      [
        "sh",
        "ow"
      ],
      [
        "sh",
        "ut"
      ],
      [
        "sh",
        "ire"
      ],
      [
        "had",
        "n"
      ],
      [
        "ne",
        "ck"
      ],
      [
        "ti",
        "red"
      ],
      [
        "ck",
        "ing"
      ],
      [
        "ha",
        "ir"
      ],
      [
        "his",
        "tory"
      ],
      [
        "mo",
        "ved"
      ],
      [
        "ss",
        "i"
      ],
      [
        "ss",
        "ion"
      ],
      [
        "beg",
        "un"
      ],
      [
        "po",
        "ssi"
      ],
      [
        "de",
        "cid"
      ],
      [
        "de",
        "light"
      ],
      [
        "go",
        "es"
      ],
      [
        "other",
        "s"
      ],
      [
        "gr",
        "own"
      ],
      [
        "gr",
        "ound"
      ],
      [
        "ea",
        "ch"
      ],
      [
        "si",
        "gh"
      ],
      [
        "con",
        "sider"
      ],
      [
        "wor",
        "ld"
      ],
      [
        "ul",
        "ar"
      ],
      [
        "how",
        "ever"
      ],
      [
        "lar",
        "ger"
      ],
      [
        "min",
        "e"
      ],
      [
        "ey",
        "e"
      ],
      [
        "sid",
        "es"
      ],
      [
        "man",
        "age"
      ],
      [
        "pleas",
        "ed"
      ],
      [
        "wonder",
        "ing"
      ],
      [
        "wr",
        "iting"
      ],
      [
        "tre",
        "es"
      ],
      [
        "ons",
        "ense"
      ],
      [
        "happ",
        "ened"
      ],
      [
        "pre",
        "ssed"
      ],
      [
        "mid",
        "dle"
      ],
      [
        "sto",
        "ry"
      ],
      [
        "wat",
        "ch"
      ],
      [
        "sil",
        "ent"
      ],
      [
        "vent",
        "ure"
      ],
      [
        "vent",
        "ures"
      ],
      [
        "diff",
        "ic"
      ],
      [
        "fl",
        "aming"
      ],
      [
        "pr",
        "ised"
      ],
      [
        "sur",
        "prised"
      ],
      [
        "tem",
        "per"
      ],
      [
        "tem",
        "pt"
      ],
      [
        "bus",
        "iness"
      ],
      [
        "fright",
        "ened"
      ],
      [
        "gener",
        "ally"
      ],
      [
        "stoo",
        "d"
      ],
      [
        "hedgeho",
        "g"
      ],
      [
        "NO",
        "T"
      ],
      [
        "ati",
        "ently"
      ],
      [
        "sub",
        "ject"
      ],
      [
        "gold",
        "en"
      ],
      [
        "qui",
        "et"
      ],
      [
        "lobst",
        "ers"
      ],
      [
        "Che",
        "shire"
      ],
      [
        "Lor",
        "y"
      ],
      [
        "pup",
        "py"
      ],
      [
        "pard",
        "on"
      ],
      [
        "sch",
        "ool"
      ],
      [
        "vio",
        "l"
      ],
      [
        "chim",
        "ney"
      ],
      [
        "decid",
        "ed"
      ],
      [
        "flaming",
        "o"
      ],
      [
        "A",
        "S"
      ],
      [
        "A",
        "f"
      ],
      [
        "A",
        "RE"
      ],
      [
        "B",
        "E"
      ],
      [
        "E",
        "ng"
      ],
      [
        "H",
        "ear"
      ],
      [
        "O",
        "ne"
      ],
      [
        "T",
        "wo"
      ],
      [
        "U",
        "S"
      ],
      [
        "b",
        "ly"
      ],
      [
        "c",
        "or"
      ],
      [
        "d",
        "es"
      ],
      [
        "d",
        "are"
      ],
      [
        "e",
        "f"
      ],
      [
        "e",
        "en"
      ],
      [
        "f",
        "i"
      ],
      [
        "f",
        "un"
      ],
      [
        "g",
        "ing"
      ],
      [
        "g",
        "re"
      ],
      [
        "h",
        "our"
      ],
      [
        "i",
        "am"
      ],
      [
        "l",
        "an"
      ],
      [
        "l",
        "ad"
      ],
      [
        "l",
        "ate"
      ],
      [
        "m",
        "en"
      ],
      [
        "n",
        "ur"
      ],
      [
        "n",
        "onsense"
      ],
      [
        "o",
        "bst"
      ],
      [
        "r",
        "id"
      ],
      [
        "r",
        "abbit"
      ],
      [
        "s",
        "n"
      ],
      [
        "s",
        "or"
      ],
      [
        "s",
        "ir"
      ],
      [
        "s",
        "im"
      ],
      [
        "t",
        "ch"
      ],
      [
        "t",
        "ast"
      ],
      [
        "t",
        "ru"
      ],
      [
        "t",
        "arts"
      ],
      [
        "u",
        "g"
      ],
      [
        "w",
        "ise"
      ],
      [
        "w",
        "ards"
      ],
      [
        "z",
        "es"
      ],
      [
        "z",
        "ard"
      ],
      [
        "in",
        "ea"
      ],
      [
        "in",
        "ches"
      ],
      [
        "an",
        "im"
      ],
      [
        "ou",
        "ble"
      ],
      [
        "it",
        "h"
      ],
      [
        "it",
        "ten"
      ],
      [
        "er",
        "ed"
      ],
      [
        "to",
        "ld"
      ],
      [
        "id",
        "e"
      ],
      [
        "se",
        "con"
      ],
      [
        "li",
        "ked"
      ],
      [
        "ar",
        "gu"
      ],
      [
        "is",
        "on"
      ],
      [
        "be",
        "l"
      ],
      [
        "be",
        "at"
      ],
      [
        "me",
        "lan"
      ],
      [
        "you",
        "th"
      ],
      [
        "st",
        "ay"
      ],
      [
        "ld",
        "ed"
      ],
      [
        "ut",
        "ter"
      ],
      [
        "--",
        "`"
      ],
      [
        "al",
        "ong"
      ],
      [
        "al",
        "most"
      ],
      [
        "ti",
        "c"
      ],
      [
        "ro",
        "of"
      ],
      [
        "lit",
        "ely"
      ],
      [
        "ag",
        "ed"
      ],
      [
        "pe",
        "pper"
      ],
      [
        "fe",
        "ll"
      ],
      [
        "fe",
        "tch"
      ],
      [
        "im",
        "ed"
      ],
      [
        "ss",
        "ing"
      ],
      [
        "po",
        "cket"
      ],
      [
        "po",
        "litely"
      ],
      [
        "ca",
        "ke"
      ],
      [
        "ex",
        "ce"
      ],
      [
        "ex",
        "cla"
      ],
      [
        "my",
        "self"
      ],
      [
        "wor",
        "th"
      ],
      [
        "ho",
        "p"
      ],
      [
        "him",
        "self"
      ],
      [
        "read",
        "ing"
      ],
      [
        "pi",
        "ct"
      ],
      [
        "pi",
        "gs"
      ],
      [
        "mar",
        "ked"
      ],
      [
        "spe",
        "ct"
      ],
      [
        "arm",
        "s"
      ],
      [
        "wr",
        "itten"
      ],
      [
        "under",
        "stand"
      ],
      [
        "pre",
        "sent"
      ],
      [
        "gu",
        "ess"
      ],
      [
        "gu",
        "inea"
      ],
      [
        "sm",
        "i"
      ],
      [
        "fin",
        "ish"
      ],
      [
        "ig",
        "n"
      ],
      [
        "inter",
        "est"
      ],
      [
        "execut",
        "ed"
      ],
      [
        "tr",
        "ouble"
      ],
      [
        "cho",
        "ly"
      ],
      [
        "leave",
        "s"
      ],
      [
        "shri",
        "ek"
      ],
      [
        "Will",
        "iam"
      ],
      [
        "gra",
        "ve"
      ],
      [
        "execution",
        "er"
      ],
      [
        "pers",
        "on"
      ],
      [
        "sho",
        "es"
      ],
      [
        "jump",
        "ed"
      ],
      [
        "bro",
        "ken"
      ],
      [
        "tremb",
        "ling"
      ],
      [
        "sneez",
        "ing"
      ],
      [
        "dread",
        "fully"
      ],
      [
        "forgot",
        "ten"
      ],
      [
        "proce",
        "ssion"
      ],
      [
        "Li",
        "zard"
      ],
      [
        "evid",
        "ence"
      ],
      [
        "scre",
        "am"
      ],
      [
        "diffic",
        "ult"
      ],
      [
        "Af",
        "ter"
      ],
      [
        "Eng",
        "lish"
      ],
      [
        "Hear",
        "ts"
      ],
      [
        "sim",
        "ple"
      ],
      [
        "anim",
        "al"
      ],
      [
        "melan",
        "choly"
      ],
      [
        "excla",
        "imed"
      ],
      [
        "\"",
        "--"
      ],
      [
        "'",
        ";"
      ],
      [
        "(",
        "`"
      ],
      [
        "A",
        "R"
      ],
      [
        "A",
        "d"
      ],
      [
        "A",
        "h"
      ],
      [
        "A",
        "ll"
      ],
      [
        "B",
        "e"
      ],
      [
        "C",
        "on"
      ],
      [
        "E",
        "x"
      ],
      [
        "L",
        "obst"
      ],
      [
        "M",
        "y"
      ],
      [
        "P",
        "le"
      ],
      [
        "Q",
        "u"
      ],
      [
        "R",
        "e"
      ],
      [
        "S",
        "O"
      ],
      [
        "S",
        "even"
      ],
      [
        "S",
        "HE"
      ],
      [
        "T",
        "ell"
      ],
      [
        "V",
        "ery"
      ],
      [
        "W",
        "here"
      ],
      [
        "W",
        "OULD"
      ],
      [
        "W",
        "AS"
      ],
      [
        "a",
        "id"
      ],
      [
        "a",
        "ther"
      ],
      [
        "a",
        "pp"
      ],
      [
        "b",
        "s"
      ],
      [
        "b",
        "ring"
      ],
      [
        "c",
        "ed"
      ],
      [
        "c",
        "le"
      ],
      [
        "c",
        "ry"
      ],
      [
        "c",
        "ru"
      ],
      [
        "c",
        "ase"
      ],
      [
        "d",
        "in"
      ],
      [
        "d",
        "is"
      ],
      [
        "d",
        "rink"
      ],
      [
        "e",
        "m"
      ],
      [
        "e",
        "as"
      ],
      [
        "f",
        "f"
      ],
      [
        "f",
        "ing"
      ],
      [
        "f",
        "ri"
      ],
      [
        "f",
        "ig"
      ],
      [
        "f",
        "ire"
      ],
      [
        "g",
        "ar"
      ],
      [
        "h",
        "ook"
      ],
      [
        "i",
        "ed"
      ],
      [
        "i",
        "es"
      ],
      [
        "i",
        "bb"
      ],
      [
        "k",
        "id"
      ],
      [
        "k",
        "no"
      ],
      [
        "l",
        "ay"
      ],
      [
        "l",
        "ock"
      ],
      [
        "m",
        "on"
      ],
      [
        "m",
        "ain"
      ],
      [
        "m",
        "utter"
      ],
      [
        "n",
        "y"
      ],
      [
        "n",
        "if"
      ],
      [
        "n",
        "ight"
      ],
      [
        "n",
        "ine"
      ],
      [
        "n",
        "ibb"
      ],
      [
        "p",
        "it"
      ],
      [
        "p",
        "ack"
      ],
      [
        "s",
        "pl"
      ],
      [
        "s",
        "que"
      ],
      [
        "s",
        "ky"
      ],
      [
        "t",
        "u"
      ],
      [
        "t",
        "ra"
      ],
      [
        "t",
        "un"
      ],
      [
        "u",
        "sh"
      ],
      [
        "u",
        "ck"
      ],
      [
        "v",
        "an"
      ],
      [
        "v",
        "ous"
      ],
      [
        "w",
        "and"
      ],
      [
        "w",
        "ink"
      ],
      [
        "he",
        "ight"
      ],
      [
        "in",
        "ce"
      ],
      [
        "re",
        "t"
      ],
      [
        "re",
        "main"
      ],
      [
        "th",
        "row"
      ],
      [
        "as",
        "king"
      ],
      [
        "ed",
        "s"
      ],
      [
        "sa",
        "dly"
      ],
      [
        "of",
        "ten"
      ],
      [
        "ar",
        "ing"
      ],
      [
        "ar",
        "row"
      ],
      [
        "be",
        "tw"
      ],
      [
        "be",
        "come"
      ],
      [
        "me",
        "ant"
      ],
      [
        "you",
        "ng"
      ],
      [
        "st",
        "ran"
      ],
      [
        "st",
        "ick"
      ],
      [
        "all",
        "ow"
      ],
      [
        "ot",
        "e"
      ],
      [
        "sh",
        "an"
      ],
      [
        "sh",
        "rink"
      ],
      [
        "al",
        "oud"
      ],
      [
        "al",
        "together"
      ],
      [
        "ti",
        "l"
      ],
      [
        "do",
        "ing"
      ],
      [
        "not",
        "ice"
      ],
      [
        "ro",
        "ss"
      ],
      [
        "no",
        "body"
      ],
      [
        "fe",
        "llow"
      ],
      [
        "su",
        "l"
      ],
      [
        "ra",
        "ce"
      ],
      [
        "po",
        "in"
      ],
      [
        "un",
        "comfor"
      ],
      [
        "un",
        "til"
      ],
      [
        "like",
        "ly"
      ],
      [
        "off",
        "ic"
      ],
      [
        "some",
        "body"
      ],
      [
        "some",
        "times"
      ],
      [
        "fo",
        "lded"
      ],
      [
        "ind",
        "ign"
      ],
      [
        "ex",
        "actly"
      ],
      [
        "gr",
        "un"
      ],
      [
        "pp",
        "ing"
      ],
      [
        "ju",
        "d"
      ],
      [
        "tw",
        "ice"
      ],
      [
        "tw",
        "el"
      ],
      [
        "mb",
        "s"
      ],
      [
        "lo",
        "ve"
      ],
      [
        "end",
        "s"
      ],
      [
        "ho",
        "me"
      ],
      [
        "ho",
        "pe"
      ],
      [
        "should",
        "n"
      ],
      [
        "seem",
        "s"
      ],
      [
        "cur",
        "io"
      ],
      [
        "ang",
        "ry"
      ],
      [
        "rep",
        "ly"
      ],
      [
        "jur",
        "or"
      ],
      [
        "spe",
        "aking"
      ],
      [
        "every",
        "body"
      ],
      [
        "ta",
        "king"
      ],
      [
        "near",
        "er"
      ],
      [
        "ac",
        "ross"
      ],
      [
        "air",
        "s"
      ],
      [
        "even",
        "ing"
      ],
      [
        "wa",
        "ving"
      ],
      [
        "wr",
        "ite"
      ],
      [
        "wr",
        "ong"
      ],
      [
        "tre",
        "acle"
      ],
      [
        "tea",
        "cup"
      ],
      [
        "sit",
        "y"
      ],
      [
        "mean",
        "s"
      ],
      [
        "pre",
        "t"
      ],
      [
        "kne",
        "e"
      ],
      [
        "pa",
        "ws"
      ],
      [
        "wal",
        "k"
      ],
      [
        "wal",
        "king"
      ],
      [
        "imp",
        "atiently"
      ],
      [
        "face",
        "s"
      ],
      [
        "remember",
        "ed"
      ],
      [
        "dre",
        "w"
      ],
      [
        "mor",
        "ning"
      ],
      [
        "sto",
        "p"
      ],
      [
        "wat",
        "er"
      ],
      [
        "cl",
        "ock"
      ],
      [
        "sent",
        "ence"
      ],
      [
        "raw",
        "ling"
      ],
      [
        "IN",
        "K"
      ],
      [
        "ner",
        "vous"
      ],
      [
        "sur",
        "pri"
      ],
      [
        "happen",
        "s"
      ],
      [
        "sw",
        "im"
      ],
      [
        "sw",
        "am"
      ],
      [
        "shri",
        "ll"
      ],
      [
        "Whi",
        "le"
      ],
      [
        "bb",
        "ing"
      ],
      [
        "sound",
        "ed"
      ],
      [
        "dire",
        "ction"
      ],
      [
        "cou",
        "n"
      ],
      [
        "pass",
        "ed"
      ],
      [
        "sleep",
        "y"
      ],
      [
        "inst",
        "antly"
      ],
      [
        "sig",
        "hed"
      ],
      [
        "twink",
        "le"
      ],
      [
        "Bea",
        "utiful"
      ],
      [
        "crow",
        "ded"
      ],
      [
        "usu",
        "al"
      ],
      [
        "whisper",
        "ed"
      ],
      [
        "confus",
        "ion"
      ],
      [
        "WI",
        "LL"
      ],
      [
        "dro",
        "pped"
      ],
      [
        "eg",
        "gs"
      ],
      [
        "quiet",
        "ly"
      ],
      [
        "sor",
        "row"
      ],
      [
        "argu",
        "ment"
      ],
      [
        "interest",
        "ing"
      ],
      [
        "Lobst",
        "er"
      ],
      [
        "Ple",
        "ase"
      ],
      [
        "fing",
        "er"
      ],
      [
        "hook",
        "ah"
      ],
      [
        "betw",
        "een"
      ],
      [
        "stran",
        "ge"
      ],
      [
        "curio",
        "sity"
      ],
      [
        "surpri",
        "se"
      ],
      [
        ")",
        "."
      ],
      [
        ",",
        "\""
      ],
      [
        ",",
        "\"'"
      ],
      [
        ".",
        "\""
      ],
      [
        "?",
        "--"
      ],
      [
        "A",
        "L"
      ],
      [
        "A",
        "re"
      ],
      [
        "A",
        "LL"
      ],
      [
        "B",
        "y"
      ],
      [
        "C",
        "E"
      ],
      [
        "C",
        "an"
      ],
      [
        "C",
        "all"
      ],
      [
        "C",
        "AN"
      ],
      [
        "C",
        "OULD"
      ],
      [
        "E",
        "N"
      ],
      [
        "E",
        "very"
      ],
      [
        "F",
        "ren"
      ],
      [
        "H",
        "I"
      ],
      [
        "H",
        "O"
      ],
      [
        "H",
        "ER"
      ],
      [
        "H",
        "old"
      ],
      [
        "I",
        "D"
      ],
      [
        "I",
        "CE"
      ],
      [
        "M",
        "ary"
      ],
      [
        "N",
        "or"
      ],
      [
        "N",
        "ever"
      ],
      [
        "O",
        "NE"
      ],
      [
        "S",
        "h"
      ],
      [
        "S",
        "ure"
      ],
      [
        "S",
        "aid"
      ],
      [
        "T",
        "O"
      ],
      [
        "T",
        "S"
      ],
      [
        "T",
        "ake"
      ],
      [
        "W",
        "ith"
      ],
      [
        "`",
        "\""
      ],
      [
        "a",
        "u"
      ],
      [
        "a",
        "x"
      ],
      [
        "b",
        "reat"
      ],
      [
        "b",
        "ank"
      ],
      [
        "c",
        "us"
      ],
      [
        "c",
        "lear"
      ],
      [
        "d",
        "ish"
      ],
      [
        "d",
        "ark"
      ],
      [
        "e",
        "ad"
      ],
      [
        "f",
        "on"
      ],
      [
        "f",
        "ly"
      ],
      [
        "f",
        "ill"
      ],
      [
        "f",
        "ast"
      ],
      [
        "f",
        "low"
      ],
      [
        "f",
        "la"
      ],
      [
        "g",
        "ue"
      ],
      [
        "g",
        "ently"
      ],
      [
        "h",
        "on"
      ],
      [
        "k",
        "it"
      ],
      [
        "l",
        "and"
      ],
      [
        "m",
        "s"
      ],
      [
        "m",
        "ing"
      ],
      [
        "m",
        "ice"
      ],
      [
        "m",
        "aster"
      ],
      [
        "n",
        "one"
      ],
      [
        "n",
        "umber"
      ],
      [
        "o",
        "b"
      ],
      [
        "o",
        "c"
      ],
      [
        "p",
        "an"
      ],
      [
        "p",
        "as"
      ],
      [
        "p",
        "ar"
      ],
      [
        "p",
        "or"
      ],
      [
        "p",
        "ur"
      ],
      [
        "p",
        "atter"
      ],
      [
        "s",
        "li"
      ],
      [
        "s",
        "oup"
      ],
      [
        "s",
        "ince"
      ],
      [
        "t",
        "ong"
      ],
      [
        "u",
        "m"
      ],
      [
        "u",
        "ce"
      ],
      [
        "u",
        "de"
      ],
      [
        "v",
        "il"
      ],
      [
        "v",
        "age"
      ],
      [
        "w",
        "ow"
      ],
      [
        "w",
        "ild"
      ],
      [
        "y",
        "er"
      ],
      [
        "y",
        "aw"
      ],
      [
        "he",
        "ld"
      ],
      [
        "in",
        "v"
      ],
      [
        "it",
        "ude"
      ],
      [
        "at",
        "ed"
      ],
      [
        "on",
        "es"
      ],
      [
        "re",
        "al"
      ],
      [
        "to",
        "m"
      ],
      [
        "th",
        "or"
      ],
      [
        "th",
        "im"
      ],
      [
        "ll",
        "e"
      ],
      [
        "ll",
        "ed"
      ],
      [
        "li",
        "ves"
      ],
      [
        "sa",
        "vage"
      ],
      [
        "ar",
        "re"
      ],
      [
        "ar",
        "se"
      ],
      [
        "ar",
        "ches"
      ],
      [
        "or",
        "us"
      ],
      [
        "be",
        "head"
      ],
      [
        "ad",
        "ri"
      ],
      [
        "ad",
        "ventures"
      ],
      [
        "st",
        "s"
      ],
      [
        "st",
        "ra"
      ],
      [
        "st",
        "art"
      ],
      [
        "st",
        "airs"
      ],
      [
        "was",
        "h"
      ],
      [
        "ch",
        "ance"
      ],
      [
        "ver",
        "se"
      ],
      [
        "ver",
        "di"
      ],
      [
        "ver",
        "ses"
      ],
      [
        "her",
        "s"
      ],
      [
        "ot",
        "s"
      ],
      [
        "--",
        "\"'"
      ],
      [
        "so",
        "bs"
      ],
      [
        "ur",
        "al"
      ],
      [
        "sh",
        "ort"
      ],
      [
        "al",
        "one"
      ],
      [
        "es",
        "ca"
      ],
      [
        "up",
        "set"
      ],
      [
        "ne",
        "w"
      ],
      [
        "ne",
        "at"
      ],
      [
        "ti",
        "p"
      ],
      [
        "for",
        "tun"
      ],
      [
        "ro",
        "se"
      ],
      [
        "own",
        "ing"
      ],
      [
        "sel",
        "ves"
      ],
      [
        "no",
        "ise"
      ],
      [
        "pe",
        "t"
      ],
      [
        "pe",
        "ep"
      ],
      [
        "fe",
        "ar"
      ],
      [
        "fe",
        "ctly"
      ],
      [
        "im",
        "med"
      ],
      [
        "ra",
        "ge"
      ],
      [
        "po",
        "ise"
      ],
      [
        "de",
        "ad"
      ],
      [
        "ion",
        "s"
      ],
      [
        "ca",
        "pit"
      ],
      [
        "che",
        "n"
      ],
      [
        "thought",
        "fully"
      ],
      [
        "other",
        "wise"
      ],
      [
        "qu",
        "ick"
      ],
      [
        "qu",
        "arre"
      ],
      [
        "ex",
        "pe"
      ],
      [
        "say",
        "s"
      ],
      [
        "gr",
        "ass"
      ],
      [
        "si",
        "c"
      ],
      [
        "con",
        "cl"
      ],
      [
        "con",
        "tempt"
      ],
      [
        "ct",
        "ed"
      ],
      [
        "per",
        "fectly"
      ],
      [
        "led",
        "ge"
      ],
      [
        "ho",
        "le"
      ],
      [
        "ho",
        "arse"
      ],
      [
        "TH",
        "IS"
      ],
      [
        "ear",
        "th"
      ],
      [
        "should",
        "er"
      ],
      [
        "should",
        "ers"
      ],
      [
        "day",
        "s"
      ],
      [
        "el",
        "bow"
      ],
      [
        "fa",
        "ir"
      ],
      [
        "man",
        "aged"
      ],
      [
        "di",
        "sa"
      ],
      [
        "ru",
        "le"
      ],
      [
        "ru",
        "sh"
      ],
      [
        "begin",
        "s"
      ],
      [
        "ta",
        "ken"
      ],
      [
        "ta",
        "ught"
      ],
      [
        "we",
        "ek"
      ],
      [
        "No",
        "thing"
      ],
      [
        "te",
        "en"
      ],
      [
        "te",
        "les"
      ],
      [
        "jury",
        "men"
      ],
      [
        "set",
        "t"
      ],
      [
        "pa",
        "le"
      ],
      [
        "pa",
        "per"
      ],
      [
        "question",
        "s"
      ],
      [
        "cro",
        "ss"
      ],
      [
        "let",
        "ter"
      ],
      [
        "hear",
        "ing"
      ],
      [
        "Ma",
        "bel"
      ],
      [
        "HA",
        "VE"
      ],
      [
        "sup",
        "pressed"
      ],
      [
        "oot",
        "iful"
      ],
      [
        "want",
        "ed"
      ],
      [
        "play",
        "ers"
      ],
      [
        "IN",
        "G"
      ],
      [
        "bot",
        "tom"
      ],
      [
        "creat",
        "ure"
      ],
      [
        "tin",
        "y"
      ],
      [
        "puzz",
        "ling"
      ],
      [
        "answer",
        "ed"
      ],
      [
        "mouth",
        "s"
      ],
      [
        "fall",
        "en"
      ],
      [
        "bus",
        "ily"
      ],
      [
        "sl",
        "ate"
      ],
      [
        "bea",
        "ut"
      ],
      [
        "conf",
        "used"
      ],
      [
        "An",
        "n"
      ],
      [
        "cou",
        "rage"
      ],
      [
        "pass",
        "ion"
      ],
      [
        "deep",
        "ly"
      ],
      [
        "AN",
        "D"
      ],
      [
        "car",
        "ried"
      ],
      [
        "sho",
        "re"
      ],
      [
        "jump",
        "ing"
      ],
      [
        "twink",
        "ling"
      ],
      [
        "sharp",
        "ly"
      ],
      [
        "Bea",
        "u"
      ],
      [
        "bow",
        "ed"
      ],
      [
        "crow",
        "d"
      ],
      [
        "sever",
        "al"
      ],
      [
        "sever",
        "ely"
      ],
      [
        "order",
        "ed"
      ],
      [
        "bat",
        "s"
      ],
      [
        "nat",
        "ural"
      ],
      [
        "rea",
        "ch"
      ],
      [
        "ci",
        "vil"
      ],
      [
        "fr",
        "owning"
      ],
      [
        "gir",
        "l"
      ],
      [
        "hun",
        "g"
      ],
      [
        "solemn",
        "ly"
      ],
      [
        "possi",
        "ble"
      ],
      [
        "venture",
        "d"
      ],
      [
        "viol",
        "ently"
      ],
      [
        "decided",
        "ly"
      ],
      [
        "cor",
        "ner"
      ],
      [
        "gre",
        "en"
      ],
      [
        "hour",
        "s"
      ],
      [
        "secon",
        "d"
      ],
      [
        "tic",
        "ular"
      ],
      [
        "exce",
        "pt"
      ],
      [
        "pict",
        "ures"
      ],
      [
        "scream",
        "ed"
      ],
      [
        "difficult",
        "y"
      ],
      [
        "animal",
        "s"
      ],
      [
        "Qu",
        "adri"
      ],
      [
        "SO",
        "ME"
      ],
      [
        "cru",
        "mbs"
      ],
      [
        "van",
        "ished"
      ],
      [
        "ret",
        "ched"
      ],
      [
        "shrink",
        "ing"
      ],
      [
        "poin",
        "ting"
      ],
      [
        "uncomfor",
        "table"
      ],
      [
        "offic",
        "ers"
      ],
      [
        "indign",
        "antly"
      ],
      [
        "grun",
        "ted"
      ],
      [
        "jud",
        "ge"
      ],
      [
        "twel",
        "ve"
      ],
      [
        "juror",
        "s"
      ],
      [
        "Fren",
        "ch"
      ],
      [
        "breat",
        "h"
      ],
      [
        "fon",
        "d"
      ],
      [
        "hon",
        "our"
      ],
      [
        "kit",
        "chen"
      ],
      [
        "pas",
        "sage"
      ],
      [
        "par",
        "ticular"
      ],
      [
        "por",
        "poise"
      ],
      [
        "tong",
        "ue"
      ],
      [
        "thim",
        "ble"
      ],
      [
        "stra",
        "ight"
      ],
      [
        "verdi",
        "ct"
      ],
      [
        "esca",
        "pe"
      ],
      [
        "immed",
        "i"
      ],
      [
        "capit",
        "al"
      ],
      [
        "teles",
        "co"
      ],
      [
        "Quadri",
        "lle"
      ],
      [
        "!",
        "--"
      ],
      [
        "!",
        "\"'"
      ],
      [
        "\"",
        "!'"
      ],
      [
        "?",
        "\"'"
      ],
      [
        "A",
        "VE"
      ],
      [
        "B",
        "O"
      ],
      [
        "C",
        "a"
      ],
      [
        "C",
        "h"
      ],
      [
        "D",
        "O"
      ],
      [
        "D",
        "id"
      ],
      [
        "D",
        "own"
      ],
      [
        "D",
        "rawling"
      ],
      [
        "E",
        "S"
      ],
      [
        "E",
        "d"
      ],
      [
        "E",
        "ag"
      ],
      [
        "G",
        "H"
      ],
      [
        "G",
        "o"
      ],
      [
        "G",
        "ive"
      ],
      [
        "H",
        "ave"
      ],
      [
        "I",
        "s"
      ],
      [
        "L",
        "at"
      ],
      [
        "L",
        "ong"
      ],
      [
        "M",
        "ay"
      ],
      [
        "M",
        "iss"
      ],
      [
        "M",
        "US"
      ],
      [
        "O",
        "F"
      ],
      [
        "O",
        "w"
      ],
      [
        "O",
        "RE"
      ],
      [
        "P",
        "r"
      ],
      [
        "P",
        "an"
      ],
      [
        "P",
        "er"
      ],
      [
        "P",
        "at"
      ],
      [
        "Q",
        "U"
      ],
      [
        "R",
        "U"
      ],
      [
        "S",
        "up"
      ],
      [
        "S",
        "il"
      ],
      [
        "S",
        "erpent"
      ],
      [
        "T",
        "i"
      ],
      [
        "T",
        "or"
      ],
      [
        "T",
        "wink"
      ],
      [
        "W",
        "O"
      ],
      [
        "W",
        "on"
      ],
      [
        "Y",
        "et"
      ],
      [
        "a",
        "ct"
      ],
      [
        "a",
        "il"
      ],
      [
        "a",
        "live"
      ],
      [
        "b",
        "low"
      ],
      [
        "b",
        "ran"
      ],
      [
        "b",
        "rea"
      ],
      [
        "c",
        "and"
      ],
      [
        "c",
        "ce"
      ],
      [
        "c",
        "ri"
      ],
      [
        "c",
        "ting"
      ],
      [
        "c",
        "il"
      ],
      [
        "c",
        "ards"
      ],
      [
        "d",
        "a"
      ],
      [
        "d",
        "ri"
      ],
      [
        "d",
        "ull"
      ],
      [
        "d",
        "uc"
      ],
      [
        "e",
        "ch"
      ],
      [
        "e",
        "el"
      ],
      [
        "f",
        "its"
      ],
      [
        "f",
        "lo"
      ],
      [
        "f",
        "ight"
      ],
      [
        "f",
        "ree"
      ],
      [
        "f",
        "aster"
      ],
      [
        "g",
        "i"
      ],
      [
        "g",
        "ged"
      ],
      [
        "h",
        "ang"
      ],
      [
        "h",
        "umb"
      ],
      [
        "i",
        "e"
      ],
      [
        "k",
        "ill"
      ],
      [
        "k",
        "ers"
      ],
      [
        "k",
        "ick"
      ],
      [
        "k",
        "nif"
      ],
      [
        "l",
        "at"
      ],
      [
        "m",
        "a"
      ],
      [
        "m",
        "is"
      ],
      [
        "m",
        "ist"
      ],
      [
        "m",
        "iss"
      ],
      [
        "m",
        "pet"
      ],
      [
        "n",
        "ers"
      ],
      [
        "o",
        "m"
      ],
      [
        "o",
        "ve"
      ],
      [
        "p",
        "in"
      ],
      [
        "p",
        "en"
      ],
      [
        "p",
        "ot"
      ],
      [
        "p",
        "ain"
      ],
      [
        "p",
        "un"
      ],
      [
        "p",
        "ast"
      ],
      [
        "p",
        "rom"
      ],
      [
        "p",
        "ity"
      ],
      [
        "r",
        "at"
      ],
      [
        "s",
        "k"
      ],
      [
        "s",
        "er"
      ],
      [
        "s",
        "mo"
      ],
      [
        "s",
        "imp"
      ],
      [
        "s",
        "ense"
      ],
      [
        "t",
        "is"
      ],
      [
        "t",
        "went"
      ],
      [
        "t",
        "umb"
      ],
      [
        "u",
        "ne"
      ],
      [
        "u",
        "ous"
      ],
      [
        "u",
        "ff"
      ],
      [
        "v",
        "y"
      ],
      [
        "w",
        "in"
      ],
      [
        "x",
        "ed"
      ],
      [
        "y",
        "est"
      ],
      [
        "an",
        "ced"
      ],
      [
        "ou",
        "n"
      ],
      [
        "it",
        "ted"
      ],
      [
        "er",
        "ing"
      ],
      [
        "er",
        "day"
      ],
      [
        "at",
        "tempt"
      ],
      [
        "re",
        "s"
      ],
      [
        "re",
        "co"
      ],
      [
        "re",
        "lie"
      ],
      [
        "re",
        "spect"
      ],
      [
        "to",
        "es"
      ],
      [
        "to",
        "ise"
      ],
      [
        "to",
        "ssing"
      ],
      [
        "th",
        "and"
      ],
      [
        "as",
        "hed"
      ],
      [
        "ed",
        "n"
      ],
      [
        "ed",
        "ed"
      ],
      [
        "ed",
        "ge"
      ],
      [
        "en",
        "g"
      ],
      [
        "en",
        "cour"
      ],
      [
        "li",
        "f"
      ],
      [
        "li",
        "very"
      ],
      [
        "li",
        "ved"
      ],
      [
        "li",
        "ged"
      ],
      [
        "sa",
        "d"
      ],
      [
        "le",
        "gs"
      ],
      [
        "ar",
        "ound"
      ],
      [
        "she",
        "s"
      ],
      [
        "is",
        "ing"
      ],
      [
        "be",
        "ast"
      ],
      [
        "be",
        "long"
      ],
      [
        "be",
        "low"
      ],
      [
        "be",
        "sides"
      ],
      [
        "me",
        "s"
      ],
      [
        "me",
        "t"
      ],
      [
        "me",
        "et"
      ],
      [
        "ad",
        "ed"
      ],
      [
        "ad",
        "dre"
      ],
      [
        "st",
        "aring"
      ],
      [
        "st",
        "uff"
      ],
      [
        "ch",
        "orus"
      ],
      [
        "ut",
        "iously"
      ],
      [
        "so",
        "bbing"
      ],
      [
        "out",
        "side"
      ],
      [
        "oo",
        "se"
      ],
      [
        "ab",
        "ove"
      ],
      [
        "sh",
        "ap"
      ],
      [
        "sh",
        "aking"
      ],
      [
        "al",
        "as"
      ],
      [
        "al",
        "arm"
      ],
      [
        "ne",
        "st"
      ],
      [
        "ne",
        "edn"
      ],
      [
        "for",
        "getting"
      ],
      [
        "do",
        "g"
      ],
      [
        "do",
        "gs"
      ],
      [
        "not",
        "ion"
      ],
      [
        "ry",
        "ing"
      ],
      [
        "ro",
        "g"
      ],
      [
        "ro",
        "ses"
      ],
      [
        "ag",
        "ing"
      ],
      [
        "fe",
        "ct"
      ],
      [
        "im",
        "possible"
      ],
      [
        "mo",
        "ve"
      ],
      [
        "mo",
        "ving"
      ],
      [
        "su",
        "it"
      ],
      [
        "su",
        "lt"
      ],
      [
        "su",
        "cce"
      ],
      [
        "mu",
        "sic"
      ],
      [
        "po",
        "sit"
      ],
      [
        "po",
        "ison"
      ],
      [
        "de",
        "cl"
      ],
      [
        "ion",
        "ed"
      ],
      [
        "know",
        "ledge"
      ],
      [
        "un",
        "important"
      ],
      [
        "un",
        "fortun"
      ],
      [
        "them",
        "selves"
      ],
      [
        "our",
        "n"
      ],
      [
        "ca",
        "ught"
      ],
      [
        "ca",
        "utiously"
      ],
      [
        "che",
        "cked"
      ],
      [
        "che",
        "ered"
      ],
      [
        "ex",
        "am"
      ],
      [
        "ex",
        "plan"
      ],
      [
        "ex",
        "tra"
      ],
      [
        "gr",
        "and"
      ],
      [
        "si",
        "x"
      ],
      [
        "Tur",
        "n"
      ],
      [
        "pl",
        "ate"
      ],
      [
        "ant",
        "age"
      ],
      [
        "tw",
        "ist"
      ],
      [
        "bo",
        "y"
      ],
      [
        "wor",
        "se"
      ],
      [
        "ple",
        "aded"
      ],
      [
        "lo",
        "st"
      ],
      [
        "much",
        "ness"
      ],
      [
        "how",
        "ling"
      ],
      [
        "voice",
        "s"
      ],
      [
        "der",
        "land"
      ],
      [
        "ough",
        "ly"
      ],
      [
        "Du",
        "ck"
      ],
      [
        "ment",
        "ioned"
      ],
      [
        "must",
        "ard"
      ],
      [
        "TH",
        "ER"
      ],
      [
        "TH",
        "INK"
      ],
      [
        "pi",
        "cked"
      ],
      [
        "long",
        "er"
      ],
      [
        "mar",
        "k"
      ],
      [
        "hand",
        "ed"
      ],
      [
        "put",
        "ting"
      ],
      [
        "cat",
        "ch"
      ],
      [
        "cat",
        "ion"
      ],
      [
        "di",
        "g"
      ],
      [
        "ru",
        "les"
      ],
      [
        "So",
        "me"
      ],
      [
        "Th",
        "ank"
      ],
      [
        "spe",
        "ech"
      ],
      [
        "dear",
        "s"
      ],
      [
        "grow",
        "l"
      ],
      [
        "ta",
        "le"
      ],
      [
        "ac",
        "les"
      ],
      [
        "ac",
        "cid"
      ],
      [
        "ac",
        "coun"
      ],
      [
        "hur",
        "t"
      ],
      [
        "remar",
        "king"
      ],
      [
        "pleas",
        "ant"
      ],
      [
        "turn",
        "s"
      ],
      [
        "No",
        "body"
      ],
      [
        "den",
        "y"
      ],
      [
        "wr",
        "ote"
      ],
      [
        "find",
        "ing"
      ],
      [
        "happ",
        "y"
      ],
      [
        "sort",
        "s"
      ],
      [
        "pa",
        "w"
      ],
      [
        "pro",
        "per"
      ],
      [
        "less",
        "on"
      ],
      [
        "cro",
        "ssed"
      ],
      [
        "repeat",
        "ing"
      ],
      [
        "sto",
        "pped"
      ],
      [
        "wat",
        "ching"
      ],
      [
        "anx",
        "ious"
      ],
      [
        "pr",
        "ison"
      ],
      [
        "tr",
        "ot"
      ],
      [
        "tr",
        "ue"
      ],
      [
        "cho",
        "ked"
      ],
      [
        "foot",
        "man"
      ],
      [
        "remark",
        "s"
      ],
      [
        "small",
        "er"
      ],
      [
        "sw",
        "allow"
      ],
      [
        "whis",
        "kers"
      ],
      [
        "follow",
        "s"
      ],
      [
        "appe",
        "ar"
      ],
      [
        "cti",
        "ons"
      ],
      [
        "sound",
        "s"
      ],
      [
        "dire",
        "ctions"
      ],
      [
        "tail",
        "s"
      ],
      [
        "join",
        "ed"
      ],
      [
        "fur",
        "ther"
      ],
      [
        "inst",
        "ance"
      ],
      [
        "inst",
        "ead"
      ],
      [
        "grin",
        "ned"
      ],
      [
        "listen",
        "ing"
      ],
      [
        "On",
        "ce"
      ],
      [
        "On",
        "ly"
      ],
      [
        "cr",
        "own"
      ],
      [
        "cr",
        "ash"
      ],
      [
        "gener",
        "al"
      ],
      [
        "adv",
        "ance"
      ],
      [
        "adv",
        "antage"
      ],
      [
        "open",
        "ing"
      ],
      [
        "piece",
        "s"
      ],
      [
        "hedgeho",
        "gs"
      ],
      [
        "care",
        "fully"
      ],
      [
        "loud",
        "ly"
      ],
      [
        "pri",
        "zes"
      ],
      [
        "sp",
        "read"
      ],
      [
        "serpent",
        "s"
      ],
      [
        "uc",
        "us"
      ],
      [
        "hold",
        "ing"
      ],
      [
        "br",
        "ought"
      ],
      [
        "usu",
        "ally"
      ],
      [
        "confus",
        "ing"
      ],
      [
        "bur",
        "n"
      ],
      [
        "fr",
        "on"
      ],
      [
        "gir",
        "ls"
      ],
      [
        "hun",
        "ting"
      ],
      [
        "mi",
        "les"
      ],
      [
        "int",
        "ro"
      ],
      [
        "att",
        "ending"
      ],
      [
        "possi",
        "bly"
      ],
      [
        "sigh",
        "ing"
      ],
      [
        "consider",
        "ing"
      ],
      [
        "consider",
        "ed"
      ],
      [
        "ef",
        "fect"
      ],
      [
        "fun",
        "ny"
      ],
      [
        "lad",
        "y"
      ],
      [
        "nur",
        "se"
      ],
      [
        "nur",
        "sing"
      ],
      [
        "sn",
        "ail"
      ],
      [
        "tast",
        "ed"
      ],
      [
        "tru",
        "mpet"
      ],
      [
        "cake",
        "s"
      ],
      [
        "hop",
        "ing"
      ],
      [
        "spect",
        "acles"
      ],
      [
        "guess",
        "ed"
      ],
      [
        "grave",
        "ly"
      ],
      [
        "Ad",
        "ventures"
      ],
      [
        "Con",
        "sider"
      ],
      [
        "Ex",
        "actly"
      ],
      [
        "bring",
        "ing"
      ],
      [
        "eas",
        "ily"
      ],
      [
        "fri",
        "end"
      ],
      [
        "fig",
        "ure"
      ],
      [
        "kno",
        "cking"
      ],
      [
        "mutter",
        "ing"
      ],
      [
        "nibb",
        "ling"
      ],
      [
        "spl",
        "ash"
      ],
      [
        "tu",
        "cked"
      ],
      [
        "remain",
        "ed"
      ],
      [
        "sul",
        "ky"
      ],
      [
        "AL",
        "ICE"
      ],
      [
        "HI",
        "M"
      ],
      [
        "cus",
        "to"
      ],
      [
        "fill",
        "ed"
      ],
      [
        "gue",
        "sts"
      ],
      [
        "ob",
        "liged"
      ],
      [
        "patter",
        "ing"
      ],
      [
        "sli",
        "pped"
      ],
      [
        "behead",
        "ed"
      ],
      [
        "peep",
        "ed"
      ],
      [
        "expe",
        "cting"
      ],
      [
        "contempt",
        "uous"
      ],
      [
        "disa",
        "p"
      ],
      [
        "sett",
        "led"
      ],
      [
        "beaut",
        "if"
      ],
      [
        "hung",
        "ry"
      ],
      [
        "immedi",
        "ately"
      ],
      [
        "telesco",
        "pe"
      ],
      [
        "Ca",
        "ucus"
      ],
      [
        "Eag",
        "let"
      ],
      [
        "MUS",
        "T"
      ],
      [
        "Ow",
        "l"
      ],
      [
        "Pr",
        "ay"
      ],
      [
        "Pan",
        "ther"
      ],
      [
        "Per",
        "haps"
      ],
      [
        "Sil",
        "ence"
      ],
      [
        "Ti",
        "me"
      ],
      [
        "Tor",
        "toise"
      ],
      [
        "Twink",
        "le"
      ],
      [
        "Won",
        "derland"
      ],
      [
        "brea",
        "the"
      ],
      [
        "cand",
        "le"
      ],
      [
        "flo",
        "or"
      ],
      [
        "hang",
        "ing"
      ],
      [
        "knif",
        "e"
      ],
      [
        "lat",
        "er"
      ],
      [
        "mist",
        "ake"
      ],
      [
        "pen",
        "cil"
      ],
      [
        "simp",
        "ly"
      ],
      [
        "une",
        "as"
      ],
      [
        "yest",
        "erday"
      ],
      [
        "shap",
        "ed"
      ],
      [
        "succe",
        "eded"
      ],
      [
        "unfortun",
        "ate"
      ],
      [
        "explan",
        "ation"
      ],
      [
        "accid",
        "ent"
      ],
      [
        "'",
        ","
      ],
      [
        ")",
        ";"
      ],
      [
        ")",
        "--"
      ],
      [
        ".",
        "--"
      ],
      [
        "?",
        "\""
      ],
      [
        "A",
        "D"
      ],
      [
        "A",
        "M"
      ],
      [
        "A",
        "l"
      ],
      [
        "A",
        "ID"
      ],
      [
        "A",
        "THER"
      ],
      [
        "C",
        "r"
      ],
      [
        "C",
        "HO"
      ],
      [
        "D",
        "R"
      ],
      [
        "D",
        "Y"
      ],
      [
        "D",
        "ER"
      ],
      [
        "D",
        "ig"
      ],
      [
        "E",
        "D"
      ],
      [
        "E",
        "T"
      ],
      [
        "E",
        "VER"
      ],
      [
        "F",
        "U"
      ],
      [
        "F",
        "ur"
      ],
      [
        "F",
        "ound"
      ],
      [
        "F",
        "ish"
      ],
      [
        "F",
        "IT"
      ],
      [
        "F",
        "ather"
      ],
      [
        "F",
        "ATHER"
      ],
      [
        "G",
        "et"
      ],
      [
        "G",
        "AVE"
      ],
      [
        "H",
        "ush"
      ],
      [
        "I",
        "F"
      ],
      [
        "I",
        "_"
      ],
      [
        "I",
        "m"
      ],
      [
        "I",
        "AM"
      ],
      [
        "K",
        "e"
      ],
      [
        "L",
        "ast"
      ],
      [
        "L",
        "IT"
      ],
      [
        "M",
        "I"
      ],
      [
        "M",
        "er"
      ],
      [
        "M",
        "or"
      ],
      [
        "M",
        "ind"
      ],
      [
        "M",
        "IN"
      ],
      [
        "M",
        "ORE"
      ],
      [
        "N",
        "T"
      ],
      [
        "N",
        "ex"
      ],
      [
        "N",
        "important"
      ],
      [
        "O",
        "VE"
      ],
      [
        "O",
        "LD"
      ],
      [
        "P",
        "e"
      ],
      [
        "P",
        "o"
      ],
      [
        "P",
        "en"
      ],
      [
        "P",
        "ar"
      ],
      [
        "P",
        "ri"
      ],
      [
        "P",
        "ig"
      ],
      [
        "P",
        "LE"
      ],
      [
        "P",
        "res"
      ],
      [
        "R",
        "o"
      ],
      [
        "R",
        "US"
      ],
      [
        "S",
        "E"
      ],
      [
        "S",
        "T"
      ],
      [
        "S",
        "e"
      ],
      [
        "S",
        "t"
      ],
      [
        "S",
        "u"
      ],
      [
        "S",
        "to"
      ],
      [
        "S",
        "pe"
      ],
      [
        "S",
        "hall"
      ],
      [
        "S",
        "AID"
      ],
      [
        "T",
        "re"
      ],
      [
        "T",
        "is"
      ],
      [
        "T",
        "LE"
      ],
      [
        "T",
        "WO"
      ],
      [
        "U",
        "R"
      ],
      [
        "U",
        "g"
      ],
      [
        "U",
        "p"
      ],
      [
        "U",
        "gh"
      ],
      [
        "U",
        "Nimportant"
      ],
      [
        "V",
        "II"
      ],
      [
        "W",
        "r"
      ],
      [
        "W",
        "ow"
      ],
      [
        "W",
        "ake"
      ],
      [
        "Y",
        "our"
      ],
      [
        "_",
        "I_"
      ],
      [
        "`",
        "'"
      ],
      [
        "a",
        "ked"
      ],
      [
        "a",
        "ws"
      ],
      [
        "a",
        "vy"
      ],
      [
        "b",
        "l"
      ],
      [
        "b",
        "re"
      ],
      [
        "b",
        "ar"
      ],
      [
        "b",
        "is"
      ],
      [
        "b",
        "ad"
      ],
      [
        "b",
        "ite"
      ],
      [
        "b",
        "our"
      ],
      [
        "b",
        "end"
      ],
      [
        "b",
        "last"
      ],
      [
        "b",
        "ble"
      ],
      [
        "b",
        "ark"
      ],
      [
        "b",
        "eds"
      ],
      [
        "b",
        "arrow"
      ],
      [
        "b",
        "rush"
      ],
      [
        "c",
        "ing"
      ],
      [
        "c",
        "as"
      ],
      [
        "c",
        "ir"
      ],
      [
        "c",
        "ra"
      ],
      [
        "c",
        "art"
      ],
      [
        "c",
        "ool"
      ],
      [
        "c",
        "uc"
      ],
      [
        "c",
        "ush"
      ],
      [
        "d",
        "r"
      ],
      [
        "d",
        "an"
      ],
      [
        "d",
        "ing"
      ],
      [
        "d",
        "les"
      ],
      [
        "d",
        "run"
      ],
      [
        "d",
        "uce"
      ],
      [
        "e",
        "w"
      ],
      [
        "e",
        "le"
      ],
      [
        "f",
        "er"
      ],
      [
        "f",
        "ain"
      ],
      [
        "f",
        "if"
      ],
      [
        "f",
        "ra"
      ],
      [
        "f",
        "am"
      ],
      [
        "f",
        "arm"
      ],
      [
        "f",
        "ash"
      ],
      [
        "f",
        "oun"
      ],
      [
        "f",
        "rog"
      ],
      [
        "g",
        "id"
      ],
      [
        "g",
        "ular"
      ],
      [
        "g",
        "oose"
      ],
      [
        "h",
        "it"
      ],
      [
        "h",
        "at"
      ],
      [
        "h",
        "atter"
      ],
      [
        "h",
        "ate"
      ],
      [
        "h",
        "int"
      ],
      [
        "i",
        "sa"
      ],
      [
        "i",
        "gh"
      ],
      [
        "i",
        "ef"
      ],
      [
        "j",
        "ar"
      ],
      [
        "j",
        "aws"
      ],
      [
        "k",
        "s"
      ],
      [
        "k",
        "not"
      ],
      [
        "k",
        "ily"
      ],
      [
        "k",
        "iss"
      ],
      [
        "l",
        "id"
      ],
      [
        "l",
        "one"
      ],
      [
        "l",
        "ves"
      ],
      [
        "l",
        "ine"
      ],
      [
        "m",
        "ur"
      ],
      [
        "m",
        "il"
      ],
      [
        "m",
        "mer"
      ],
      [
        "m",
        "itted"
      ],
      [
        "m",
        "ourn"
      ],
      [
        "n",
        "or"
      ],
      [
        "n",
        "am"
      ],
      [
        "n",
        "arrow"
      ],
      [
        "o",
        "gra"
      ],
      [
        "p",
        "at"
      ],
      [
        "p",
        "ing"
      ],
      [
        "p",
        "id"
      ],
      [
        "p",
        "arch"
      ],
      [
        "p",
        "ence"
      ],
      [
        "p",
        "ull"
      ],
      [
        "p",
        "atiently"
      ],
      [
        "r",
        "on"
      ],
      [
        "r",
        "ance"
      ],
      [
        "r",
        "att"
      ],
      [
        "s",
        "and"
      ],
      [
        "s",
        "ed"
      ],
      [
        "s",
        "en"
      ],
      [
        "s",
        "of"
      ],
      [
        "s",
        "ca"
      ],
      [
        "s",
        "ang"
      ],
      [
        "s",
        "cro"
      ],
      [
        "s",
        "nat"
      ],
      [
        "s",
        "ending"
      ],
      [
        "t",
        "ou"
      ],
      [
        "t",
        "ly"
      ],
      [
        "t",
        "all"
      ],
      [
        "t",
        "ab"
      ],
      [
        "t",
        "reat"
      ],
      [
        "t",
        "reading"
      ],
      [
        "t",
        "ones"
      ],
      [
        "u",
        "ld"
      ],
      [
        "u",
        "gh"
      ],
      [
        "u",
        "ded"
      ],
      [
        "u",
        "mp"
      ],
      [
        "v",
        "ar"
      ],
      [
        "v",
        "our"
      ],
      [
        "w",
        "ag"
      ],
      [
        "w",
        "et"
      ],
      [
        "w",
        "ea"
      ],
      [
        "w",
        "ig"
      ],
      [
        "w",
        "ine"
      ],
      [
        "w",
        "ide"
      ],
      [
        "w",
        "retched"
      ],
      [
        "y",
        "s"
      ],
      [
        "y",
        "al"
      ],
      [
        "y",
        "ear"
      ],
      [
        "z",
        "y"
      ],
      [
        "z",
        "ing"
      ],
      [
        "z",
        "ed"
      ],
      [
        "he",
        "art"
      ],
      [
        "he",
        "avy"
      ],
      [
        "in",
        "ing"
      ],
      [
        "in",
        "vent"
      ],
      [
        "an",
        "ing"
      ],
      [
        "an",
        "no"
      ],
      [
        "ou",
        "red"
      ],
      [
        "it",
        "ation"
      ],
      [
        "it",
        "ated"
      ],
      [
        "it",
        "ions"
      ],
      [
        "er",
        "or"
      ],
      [
        "er",
        "able"
      ],
      [
        "at",
        "om"
      ],
      [
        "ing",
        "s"
      ],
      [
        "re",
        "f"
      ],
      [
        "re",
        "w"
      ],
      [
        "re",
        "ts"
      ],
      [
        "re",
        "moved"
      ],
      [
        "re",
        "gular"
      ],
      [
        "to",
        "e"
      ],
      [
        "th",
        "ro"
      ],
      [
        "th",
        "ous"
      ],
      [
        "th",
        "umb"
      ],
      [
        "th",
        "ump"
      ],
      [
        "th",
        "rew"
      ],
      [
        "as",
        "se"
      ],
      [
        "as",
        "ha"
      ],
      [
        "ed",
        "itions"
      ],
      [
        "ll",
        "ing"
      ],
      [
        "ll",
        "ent"
      ],
      [
        "ll",
        "ect"
      ],
      [
        "ce",
        "i"
      ],
      [
        "se",
        "ll"
      ],
      [
        "li",
        "ving"
      ],
      [
        "li",
        "fi"
      ],
      [
        "sa",
        "l"
      ],
      [
        "sa",
        "fe"
      ],
      [
        "sa",
        "lt"
      ],
      [
        "sa",
        "ult"
      ],
      [
        "sa",
        "uce"
      ],
      [
        "le",
        "ad"
      ],
      [
        "le",
        "gged"
      ],
      [
        "le",
        "aning"
      ],
      [
        "or",
        "ter"
      ],
      [
        "or",
        "din"
      ],
      [
        "or",
        "nam"
      ],
      [
        "she",
        "lves"
      ],
      [
        "is",
        "it"
      ],
      [
        "be",
        "ar"
      ],
      [
        "be",
        "came"
      ],
      [
        "me",
        "ly"
      ],
      [
        "me",
        "mor"
      ],
      [
        "me",
        "ek"
      ],
      [
        "st",
        "er"
      ],
      [
        "st",
        "ing"
      ],
      [
        "st",
        "ir"
      ],
      [
        "st",
        "am"
      ],
      [
        "st",
        "ant"
      ],
      [
        "st",
        "ep"
      ],
      [
        "st",
        "ru"
      ],
      [
        "st",
        "ery"
      ],
      [
        "st",
        "retched"
      ],
      [
        "was",
        "ting"
      ],
      [
        "ch",
        "ar"
      ],
      [
        "ch",
        "ain"
      ],
      [
        "ch",
        "ief"
      ],
      [
        "ver",
        "ed"
      ],
      [
        "ot",
        "ic"
      ],
      [
        "so",
        "mer"
      ],
      [
        "ent",
        "ed"
      ],
      [
        "ent",
        "ang"
      ],
      [
        "ent",
        "ire"
      ],
      [
        "ge",
        "s"
      ],
      [
        "ab",
        "sur"
      ],
      [
        "tle",
        "s"
      ],
      [
        "ter",
        "ed"
      ],
      [
        "ter",
        "ri"
      ],
      [
        "with",
        "in"
      ],
      [
        "sh",
        "ill"
      ],
      [
        "sh",
        "orter"
      ],
      [
        "al",
        "so"
      ],
      [
        "al",
        "ready"
      ],
      [
        "ri",
        "a"
      ],
      [
        "The",
        "se"
      ],
      [
        "ne",
        "ither"
      ],
      [
        "ne",
        "igh"
      ],
      [
        "ti",
        "es"
      ],
      [
        "ti",
        "ers"
      ],
      [
        "for",
        "get"
      ],
      [
        "do",
        "th"
      ],
      [
        "not",
        "e"
      ],
      [
        "now",
        "here"
      ],
      [
        "ro",
        "lled"
      ],
      [
        "ro",
        "ots"
      ],
      [
        "ro",
        "yal"
      ],
      [
        "ag",
        "o"
      ],
      [
        "ag",
        "ree"
      ],
      [
        "ag",
        "ine"
      ],
      [
        "pe",
        "ared"
      ],
      [
        "pe",
        "bble"
      ],
      [
        "fe",
        "ather"
      ],
      [
        "im",
        "ent"
      ],
      [
        "this",
        "tle"
      ],
      [
        "mo",
        "der"
      ],
      [
        "su",
        "n"
      ],
      [
        "su",
        "gar"
      ],
      [
        "su",
        "mmer"
      ],
      [
        "mu",
        "s"
      ],
      [
        "ra",
        "ven"
      ],
      [
        "ra",
        "il"
      ],
      [
        "ra",
        "ving"
      ],
      [
        "ra",
        "ised"
      ],
      [
        "ra",
        "pid"
      ],
      [
        "ound",
        "s"
      ],
      [
        "know",
        "s"
      ],
      [
        "know",
        "ing"
      ],
      [
        "what",
        "ever"
      ],
      [
        "un",
        "com"
      ],
      [
        "un",
        "less"
      ],
      [
        "un",
        "folded"
      ],
      [
        "un",
        "pleasant"
      ],
      [
        "un",
        "happy"
      ],
      [
        "un",
        "rolled"
      ],
      [
        "ca",
        "used"
      ],
      [
        "ca",
        "uld"
      ],
      [
        "thought",
        "s"
      ],
      [
        "off",
        "er"
      ],
      [
        "some",
        "where"
      ],
      [
        "co",
        "ax"
      ],
      [
        "co",
        "llect"
      ],
      [
        "qu",
        "eror"
      ],
      [
        "us",
        "ing"
      ],
      [
        "us",
        "ion"
      ],
      [
        "ex",
        "per"
      ],
      [
        "ex",
        "tre"
      ],
      [
        "ex",
        "pre"
      ],
      [
        "your",
        "s"
      ],
      [
        "con",
        "cer"
      ],
      [
        "con",
        "stant"
      ],
      [
        "who",
        "se"
      ],
      [
        "pl",
        "ates"
      ],
      [
        "ph",
        "y"
      ],
      [
        "ph",
        "antly"
      ],
      [
        "bo",
        "ards"
      ],
      [
        "bo",
        "ots"
      ],
      [
        "ling",
        "ing"
      ],
      [
        "by",
        "e"
      ],
      [
        "mb",
        "ling"
      ],
      [
        "mb",
        "led"
      ],
      [
        "ure",
        "d"
      ],
      [
        "cour",
        "tiers"
      ],
      [
        "tur",
        "tles"
      ],
      [
        "ear",
        "ls"
      ],
      [
        "ear",
        "nest"
      ],
      [
        "fore",
        "head"
      ],
      [
        "pi",
        "cking"
      ],
      [
        "use",
        "ful"
      ],
      [
        "long",
        "ed"
      ],
      [
        "arch",
        "bis"
      ],
      [
        "OU",
        "R"
      ],
      [
        "after",
        "wards"
      ],
      [
        "el",
        "s"
      ],
      [
        "fa",
        "ther"
      ],
      [
        "man",
        "ner"
      ],
      [
        "cur",
        "led"
      ],
      [
        "cur",
        "red"
      ],
      [
        "last",
        "ed"
      ],
      [
        "put",
        "e"
      ],
      [
        "cat",
        "ching"
      ],
      [
        "di",
        "pped"
      ],
      [
        "di",
        "shes"
      ],
      [
        "ru",
        "st"
      ],
      [
        "ru",
        "de"
      ],
      [
        "ru",
        "bbing"
      ],
      [
        "ang",
        "er"
      ],
      [
        "come",
        "s"
      ],
      [
        "door",
        "s"
      ],
      [
        "ull",
        "y"
      ],
      [
        "la",
        "p"
      ],
      [
        "la",
        "w"
      ],
      [
        "la",
        "id"
      ],
      [
        "la",
        "ug"
      ],
      [
        "la",
        "bel"
      ],
      [
        "la",
        "ugh"
      ],
      [
        "tell",
        "s"
      ],
      [
        "tell",
        "ing"
      ],
      [
        "und",
        "o"
      ],
      [
        "und",
        "ers"
      ],
      [
        "Do",
        "es"
      ],
      [
        "pleas",
        "ure"
      ],
      [
        "wonder",
        "ful"
      ],
      [
        "wa",
        "ist"
      ],
      [
        "com",
        "plain"
      ],
      [
        "com",
        "fits"
      ],
      [
        "den",
        "ied"
      ],
      [
        "soon",
        "er"
      ],
      [
        "under",
        "tone"
      ],
      [
        "ist",
        "ed"
      ],
      [
        "ist",
        "ling"
      ],
      [
        "ble",
        "w"
      ],
      [
        "has",
        "n"
      ],
      [
        "old",
        "er"
      ],
      [
        "ive",
        "ly"
      ],
      [
        "pa",
        "use"
      ],
      [
        "pro",
        "ve"
      ],
      [
        "pro",
        "ved"
      ],
      [
        "pro",
        "duc"
      ],
      [
        "cro",
        "que"
      ],
      [
        "fin",
        "e"
      ],
      [
        "spo",
        "on"
      ],
      [
        "tain",
        "s"
      ],
      [
        "take",
        "s"
      ],
      [
        "let",
        "s"
      ],
      [
        "wat",
        "ched"
      ],
      [
        "cl",
        "am"
      ],
      [
        "clo",
        "sed"
      ],
      [
        "fl",
        "at"
      ],
      [
        "lef",
        "thand"
      ],
      [
        "lear",
        "ning"
      ],
      [
        "most",
        "ly"
      ],
      [
        "where",
        "ver"
      ],
      [
        "pr",
        "oud"
      ],
      [
        "ring",
        "lets"
      ],
      [
        "tri",
        "ck"
      ],
      [
        "tri",
        "um"
      ],
      [
        "want",
        "s"
      ],
      [
        "cho",
        "se"
      ],
      [
        "cho",
        "ice"
      ],
      [
        "change",
        "s"
      ],
      [
        "foot",
        "step"
      ],
      [
        "play",
        "ing"
      ],
      [
        "remark",
        "able"
      ],
      [
        "small",
        "est"
      ],
      [
        "IT",
        "E"
      ],
      [
        "sing",
        "ing"
      ],
      [
        "sing",
        "ers"
      ],
      [
        "THE",
        "Y"
      ],
      [
        "book",
        "s"
      ],
      [
        "fall",
        "ing"
      ],
      [
        "fee",
        "ble"
      ],
      [
        "hurried",
        "ly"
      ],
      [
        "bb",
        "ed"
      ],
      [
        "bir",
        "d"
      ],
      [
        "mind",
        "ing"
      ],
      [
        "name",
        "s"
      ],
      [
        "rest",
        "ing"
      ],
      [
        "dire",
        "ctly"
      ],
      [
        "dire",
        "cted"
      ],
      [
        "interrup",
        "ting"
      ],
      [
        "HE",
        "AR"
      ],
      [
        "cou",
        "ple"
      ],
      [
        "fur",
        "row"
      ],
      [
        "matter",
        "s"
      ],
      [
        "keep",
        "ing"
      ],
      [
        "shout",
        "ing"
      ],
      [
        "place",
        "s"
      ],
      [
        "execution",
        "s"
      ],
      [
        "sister",
        "s"
      ],
      [
        "snee",
        "ze"
      ],
      [
        "bright",
        "ened"
      ],
      [
        "car",
        "rying"
      ],
      [
        "cup",
        "boards"
      ],
      [
        "dist",
        "ant"
      ],
      [
        "pers",
        "isted"
      ],
      [
        "stoo",
        "p"
      ],
      [
        "umb",
        "led"
      ],
      [
        "wo",
        "man"
      ],
      [
        "adv",
        "isa"
      ],
      [
        "chang",
        "ing"
      ],
      [
        "sig",
        "ned"
      ],
      [
        "sig",
        "nif"
      ],
      [
        "fanc",
        "ied"
      ],
      [
        "learn",
        "t"
      ],
      [
        "bro",
        "ke"
      ],
      [
        "care",
        "s"
      ],
      [
        "cla",
        "ws"
      ],
      [
        "kind",
        "ly"
      ],
      [
        "ught",
        "er"
      ],
      [
        "order",
        "ing"
      ],
      [
        "gold",
        "fish"
      ],
      [
        "lobst",
        "er"
      ],
      [
        "tremb",
        "led"
      ],
      [
        "feeling",
        "s"
      ],
      [
        "sneez",
        "es"
      ],
      [
        "NE",
        "VER"
      ],
      [
        "br",
        "own"
      ],
      [
        "dread",
        "ful"
      ],
      [
        "nice",
        "ly"
      ],
      [
        "proce",
        "ed"
      ],
      [
        "doubt",
        "ful"
      ],
      [
        "doubt",
        "fully"
      ],
      [
        "ci",
        "a"
      ],
      [
        "mi",
        "le"
      ],
      [
        "mi",
        "xed"
      ],
      [
        "mer",
        "ely"
      ],
      [
        "int",
        "ment"
      ],
      [
        "sage",
        "s"
      ],
      [
        "show",
        "er"
      ],
      [
        "show",
        "ing"
      ],
      [
        "shut",
        "ting"
      ],
      [
        "delight",
        "ed"
      ],
      [
        "delight",
        "ful"
      ],
      [
        "temper",
        "ed"
      ],
      [
        "viol",
        "ent"
      ],
      [
        "flamingo",
        "es"
      ],
      [
        "BE",
        "ST"
      ],
      [
        "des",
        "per"
      ],
      [
        "rid",
        "dles"
      ],
      [
        "tast",
        "e"
      ],
      [
        "tru",
        "th"
      ],
      [
        "ug",
        "ly"
      ],
      [
        "ug",
        "lif"
      ],
      [
        "secon",
        "dly"
      ],
      [
        "beat",
        "ing"
      ],
      [
        "exce",
        "llent"
      ],
      [
        "present",
        "s"
      ],
      [
        "smi",
        "le"
      ],
      [
        "smi",
        "ling"
      ],
      [
        "smi",
        "led"
      ],
      [
        "person",
        "al"
      ],
      [
        "Con",
        "queror"
      ],
      [
        "Ex",
        "plain"
      ],
      [
        "My",
        "stery"
      ],
      [
        "Re",
        "ally"
      ],
      [
        "app",
        "les"
      ],
      [
        "cle",
        "ver"
      ],
      [
        "cry",
        "ing"
      ],
      [
        "din",
        "ner"
      ],
      [
        "dis",
        "pute"
      ],
      [
        "eas",
        "y"
      ],
      [
        "fri",
        "ends"
      ],
      [
        "lock",
        "s"
      ],
      [
        "mon",
        "th"
      ],
      [
        "mutter",
        "ed"
      ],
      [
        "ny",
        "worth"
      ],
      [
        "nibb",
        "led"
      ],
      [
        "sque",
        "e"
      ],
      [
        "sque",
        "aking"
      ],
      [
        "uck",
        "ily"
      ],
      [
        "wand",
        "ered"
      ],
      [
        "wand",
        "ering"
      ],
      [
        "throw",
        "ing"
      ],
      [
        "sul",
        "kily"
      ],
      [
        "love",
        "ly"
      ],
      [
        "teacup",
        "s"
      ],
      [
        "swim",
        "ming"
      ],
      [
        "WILL",
        "IAM"
      ],
      [
        "sorrow",
        "ful"
      ],
      [
        "Every",
        "thing"
      ],
      [
        "Every",
        "body"
      ],
      [
        "HER",
        "E"
      ],
      [
        "ID",
        "E"
      ],
      [
        "Nor",
        "thumb"
      ],
      [
        "au",
        "thor"
      ],
      [
        "flow",
        "er"
      ],
      [
        "flow",
        "ers"
      ],
      [
        "ms",
        "on"
      ],
      [
        "oc",
        "cas"
      ],
      [
        "oc",
        "curred"
      ],
      [
        "pan",
        "ting"
      ],
      [
        "pur",
        "ring"
      ],
      [
        "wild",
        "ly"
      ],
      [
        "yaw",
        "ning"
      ],
      [
        "yaw",
        "ned"
      ],
      [
        "inv",
        "ited"
      ],
      [
        "inv",
        "itation"
      ],
      [
        "thor",
        "oughly"
      ],
      [
        "start",
        "ed"
      ],
      [
        "start",
        "led"
      ],
      [
        "wash",
        "ing"
      ],
      [
        "neat",
        "ly"
      ],
      [
        "tip",
        "toe"
      ],
      [
        "quick",
        "ly"
      ],
      [
        "quarre",
        "lling"
      ],
      [
        "concl",
        "uded"
      ],
      [
        "concl",
        "usion"
      ],
      [
        "teen",
        "th"
      ],
      [
        "BO",
        "DY"
      ],
      [
        "Ed",
        "win"
      ],
      [
        "Lat",
        "itude"
      ],
      [
        "Long",
        "itude"
      ],
      [
        "QU",
        "ITE"
      ],
      [
        "Sup",
        "pose"
      ],
      [
        "bran",
        "ches"
      ],
      [
        "cri",
        "mson"
      ],
      [
        "da",
        "is"
      ],
      [
        "gi",
        "ving"
      ],
      [
        "humb",
        "ly"
      ],
      [
        "mis",
        "erable"
      ],
      [
        "miss",
        "ed"
      ],
      [
        "pin",
        "ched"
      ],
      [
        "pain",
        "ting"
      ],
      [
        "smo",
        "king"
      ],
      [
        "twent",
        "y"
      ],
      [
        "tumb",
        "ling"
      ],
      [
        "reco",
        "vered"
      ],
      [
        "relie",
        "f"
      ],
      [
        "encour",
        "aging"
      ],
      [
        "beast",
        "s"
      ],
      [
        "belong",
        "s"
      ],
      [
        "mes",
        "sages"
      ],
      [
        "addre",
        "ssed"
      ],
      [
        "posit",
        "ion"
      ],
      [
        "decl",
        "are"
      ],
      [
        "exam",
        "ine"
      ],
      [
        "extra",
        "ordin"
      ],
      [
        "dig",
        "ging"
      ],
      [
        "prison",
        "er"
      ],
      [
        "trot",
        "ting"
      ],
      [
        "fron",
        "t"
      ],
      [
        "intro",
        "duce"
      ],
      [
        "splash",
        "ing"
      ],
      [
        "custo",
        "dy"
      ],
      [
        "contemptuous",
        "ly"
      ],
      [
        "disap",
        "peared"
      ],
      [
        "beautif",
        "ully"
      ],
      [
        "uneas",
        "ily"
      ],
      [
        "Cr",
        "ab"
      ],
      [
        "CHO",
        "RUS"
      ],
      [
        "DR",
        "INK"
      ],
      [
        "Dig",
        "ging"
      ],
      [
        "FU",
        "L"
      ],
      [
        "Fur",
        "y"
      ],
      [
        "Ke",
        "ep"
      ],
      [
        "LIT",
        "TLE"
      ],
      [
        "Mer",
        "cia"
      ],
      [
        "Mor",
        "car"
      ],
      [
        "MIN",
        "E"
      ],
      [
        "Nex",
        "t"
      ],
      [
        "Pe",
        "pper"
      ],
      [
        "Po",
        "or"
      ],
      [
        "Pen",
        "nyworth"
      ],
      [
        "Par",
        "is"
      ],
      [
        "Pri",
        "zes"
      ],
      [
        "Pres",
        "ently"
      ],
      [
        "Ro",
        "me"
      ],
      [
        "Spe",
        "ak"
      ],
      [
        "Tre",
        "acle"
      ],
      [
        "Ug",
        "lifi"
      ],
      [
        "bre",
        "ak"
      ],
      [
        "blast",
        "s"
      ],
      [
        "barrow",
        "ful"
      ],
      [
        "cuc",
        "umber"
      ],
      [
        "cush",
        "ion"
      ],
      [
        "dan",
        "cing"
      ],
      [
        "drun",
        "k"
      ],
      [
        "fer",
        "rets"
      ],
      [
        "fash",
        "ion"
      ],
      [
        "foun",
        "tains"
      ],
      [
        "gid",
        "dy"
      ],
      [
        "lone",
        "ly"
      ],
      [
        "mur",
        "der"
      ],
      [
        "mil",
        "k"
      ],
      [
        "ogra",
        "phy"
      ],
      [
        "parch",
        "ment"
      ],
      [
        "ratt",
        "ling"
      ],
      [
        "sen",
        "sation"
      ],
      [
        "scro",
        "ll"
      ],
      [
        "snat",
        "ch"
      ],
      [
        "tall",
        "er"
      ],
      [
        "tab",
        "ly"
      ],
      [
        "wea",
        "k"
      ],
      [
        "anno",
        "y"
      ],
      [
        "thro",
        "at"
      ],
      [
        "thous",
        "and"
      ],
      [
        "asse",
        "mbled"
      ],
      [
        "asha",
        "med"
      ],
      [
        "ornam",
        "ented"
      ],
      [
        "meek",
        "ly"
      ],
      [
        "stir",
        "ring"
      ],
      [
        "stam",
        "ping"
      ],
      [
        "stru",
        "ck"
      ],
      [
        "somer",
        "sault"
      ],
      [
        "entang",
        "led"
      ],
      [
        "entire",
        "ly"
      ],
      [
        "absur",
        "d"
      ],
      [
        "neigh",
        "bour"
      ],
      [
        "pebble",
        "s"
      ],
      [
        "rail",
        "way"
      ],
      [
        "rapid",
        "ly"
      ],
      [
        "cauld",
        "ron"
      ],
      [
        "coax",
        "ing"
      ],
      [
        "collect",
        "ed"
      ],
      [
        "exper",
        "iment"
      ],
      [
        "extre",
        "mely"
      ],
      [
        "concer",
        "t"
      ],
      [
        "earnest",
        "ly"
      ],
      [
        "archbis",
        "hop"
      ],
      [
        "laug",
        "hed"
      ],
      [
        "trium",
        "phantly"
      ],
      [
        "footstep",
        "s"
      ],
      [
        "advisa",
        "ble"
      ],
      [
        "uglif",
        "y"
      ],
      [
        "Northumb",
        "ria"
      ],
      [
        "author",
        "ity"
      ],
      [
        "occas",
        "ion"
      ],
      [
        "extraordin",
        "ary"
      ],
      [
        "Uglifi",
        "cation"
      ],
      [
        "\"",
        "?'"
      ],
      [
        "'",
        ")"
      ],
      [
        ")",
        ":"
      ],
      [
        ")",
        ":--"
      ],
      [
        ")",
        "--`"
      ],
      [
        ".",
        "]"
      ],
      [
        ".",
        "--`"
      ],
      [
        "?",
        ")"
      ],
      [
        "A",
        "B"
      ],
      [
        "A",
        "m"
      ],
      [
        "A",
        "r"
      ],
      [
        "A",
        "he"
      ],
      [
        "A",
        "the"
      ],
      [
        "A",
        "llow"
      ],
      [
        "A",
        "IS"
      ],
      [
        "A",
        "ust"
      ],
      [
        "B",
        "r"
      ],
      [
        "B",
        "es"
      ],
      [
        "B",
        "ir"
      ],
      [
        "B",
        "et"
      ],
      [
        "B",
        "ack"
      ],
      [
        "B",
        "oot"
      ],
      [
        "B",
        "ring"
      ],
      [
        "B",
        "IT"
      ],
      [
        "B",
        "eg"
      ],
      [
        "B",
        "US"
      ],
      [
        "C",
        "H"
      ],
      [
        "C",
        "I"
      ],
      [
        "C",
        "K"
      ],
      [
        "C",
        "O"
      ],
      [
        "C",
        "l"
      ],
      [
        "C",
        "er"
      ],
      [
        "C",
        "ar"
      ],
      [
        "C",
        "ur"
      ],
      [
        "C",
        "ro"
      ],
      [
        "C",
        "RU"
      ],
      [
        "C",
        "UR"
      ],
      [
        "C",
        "OUR"
      ],
      [
        "D",
        "er"
      ],
      [
        "D",
        "ri"
      ],
      [
        "D",
        "ear"
      ],
      [
        "D",
        "ist"
      ],
      [
        "D",
        "rink"
      ],
      [
        "E",
        "Y"
      ],
      [
        "E",
        "a"
      ],
      [
        "E",
        "l"
      ],
      [
        "E",
        "n"
      ],
      [
        "E",
        "ven"
      ],
      [
        "E",
        "AT"
      ],
      [
        "E",
        "VERY"
      ],
      [
        "E",
        "VE"
      ],
      [
        "E",
        "ither"
      ],
      [
        "E",
        "vid"
      ]
    ]
  }
}